~o
<STREAMINFO> 1 39
<VECSIZE> 39<NULLD><MFCC_D_A_0><DIAGC>
~h "a"
<BEGINHMM>
<NUMSTATES> 5
<STATE> 2
<NUMMIXES> 2
<MIXTURE> 1 5.152269e-01
<MEAN> 39
 1.450782e+00 -9.654742e+00 -6.439945e+00 -8.328129e+00 -6.295666e+00 -7.390300e+00 -3.892860e+00 -1.171016e+00 -9.492577e-01 4.976498e-01 -3.185061e+00 -1.069680e+01 6.346658e+01 -1.329593e+00 8.897794e-01 -1.024286e+00 -9.985340e-02 -5.238736e-01 -1.210138e-01 6.715254e-01 4.212171e-01 1.069656e+00 -2.904100e-01 8.563725e-01 1.053224e+00 -8.174834e-01 -5.506402e-01 2.158779e-01 2.043272e-01 -1.291748e-01 -3.162802e-02 -3.586862e-01 -5.097975e-01 1.223416e-01 -1.079398e-01 -1.997781e-01 -3.645478e-01 4.098432e-01 7.345897e-01
<VARIANCE> 39
 1.127751e+01 8.820424e+00 2.741787e+01 2.314076e+00 1.138541e+01 3.292619e+01 3.195737e+01 1.173703e+01 1.787932e+01 7.872038e+01 1.017681e+02 3.201035e+01 1.298172e+01 4.557300e-01 1.142665e+00 5.358191e-01 4.483576e-01 5.749670e-01 1.365152e+00 4.318137e+00 4.173619e+00 1.167244e+00 2.130326e+00 3.530839e+00 5.188435e+00 9.896470e-01 9.927712e-02 6.853832e-02 1.116363e-01 8.517776e-02 1.611090e-01 4.535921e-01 1.363511e+00 2.776991e-01 1.220123e+00 8.890331e-01 6.701066e-01 9.310021e-01 1.828641e-01
<GCONST> 9.923956e+01
<MIXTURE> 2 4.847731e-01
<MEAN> 39
 4.203403e+00 -9.053432e+00 -6.275032e+00 -1.021595e+01 -3.003823e+00 -8.283399e+00 -1.006262e+01 -3.085076e+00 -2.601289e+00 1.750136e+00 -8.921057e+00 -1.457446e+01 6.474242e+01 -1.266944e+00 4.674534e-01 -1.030258e+00 2.374190e-02 -1.206958e+00 -8.397369e-02 7.297726e-01 -3.313345e-01 5.680672e-01 -1.428842e+00 3.904542e-01 3.637364e-01 -9.813134e-01 -9.983378e-01 4.088414e-02 -1.003047e-02 1.370111e-01 -6.966494e-01 -1.189061e+00 7.935730e-01 -3.161871e-01 1.098782e+00 -8.161867e-01 3.925307e-01 2.116416e-01 7.721284e-01
<VARIANCE> 39
 2.815212e+00 4.982640e+00 2.768262e+01 7.044564e+00 1.288184e+01 9.824739e+00 5.233228e+01 2.611880e+01 4.376131e+01 3.711913e+01 1.404951e+01 2.334865e+01 7.771290e+00 1.620832e+00 4.882601e-01 4.259404e-01 1.205244e+00 1.418267e+00 2.562070e+00 4.997361e+00 3.868498e+00 2.155562e+00 3.910317e+00 1.106802e+00 1.456233e+00 5.965613e-01 1.106495e-01 2.537146e-01 2.437221e-01 7.997409e-02 1.253016e-01 1.433209e-01 1.800026e-01 8.262579e-01 6.636567e-01 2.822321e-01 6.939851e-02 7.591609e-01 1.088324e-01
<GCONST> 9.205997e+01
<STATE> 3
<NUMMIXES> 2
<MIXTURE> 1 4.166769e-01
<MEAN> 39
 -6.278332e+00 -4.628367e+00 -7.179911e+00 -8.103539e+00 -7.181200e+00 -1.052943e+01 -1.903829e+00 -6.273008e+00 8.738839e+00 -6.365102e+00 -8.284088e+00 -1.247801e+01 6.448437e+01 -3.489224e+00 1.500273e+00 2.499315e-01 6.947793e-01 -7.738954e-01 -3.177261e+00 -2.143766e-01 -1.918692e-01 1.917151e+00 -2.335000e+00 3.258226e-01 2.607213e+00 2.786969e+00 1.015368e+00 -8.223881e-01 1.255039e+00 -8.922986e-02 1.599016e-02 -4.737328e-01 -1.611288e+00 8.968168e-01 -1.067417e+00 1.160831e+00 1.559266e-01 9.316827e-02 9.536783e-01
<VARIANCE> 39
 1.071606e+01 1.261586e+01 1.500101e+01 1.301236e+01 2.151039e+01 4.060762e+01 2.272404e+01 3.147330e+01 1.332116e+01 7.218343e+01 5.480254e+01 5.100886e+00 3.019513e+01 5.291300e-01 7.085457e-02 7.928132e-01 9.697190e-01 9.194446e-01 5.170575e-01 9.733220e+00 5.302227e+00 1.411621e+01 5.512678e+00 2.175368e+00 3.671521e+00 8.242173e-02 4.223052e-01 4.755908e-01 9.841198e-02 1.782067e-01 6.473071e-01 2.045279e-01 9.958828e-01 1.176603e+00 8.295282e-01 3.835777e-01 1.889116e-01 2.372381e+00 7.108307e-02
<GCONST> 1.025985e+02
<MIXTURE> 2 5.833231e-01
<MEAN> 39
 -1.171106e+00 -7.637022e+00 -8.734286e+00 -1.072864e+01 -9.196158e+00 -9.883122e+00 -4.579742e+00 -2.754716e+00 5.555883e-01 -3.414588e+00 -5.117438e+00 -1.169984e+01 6.271879e+01 -4.720331e+00 1.193672e+00 1.902565e-01 -1.541221e-01 -2.605143e+00 -3.157092e+00 1.771640e+00 -4.328045e-01 3.657001e+00 -2.491639e+00 8.048987e-01 4.555508e-01 1.932481e+00 2.445550e-01 -1.831348e-02 1.025180e+00 2.176965e-01 1.733745e-02 -1.159483e+00 -9.115852e-01 4.620707e-01 6.667445e-03 7.821388e-02 1.761791e-01 -1.633843e-01 9.456288e-01
<VARIANCE> 39
 1.782534e+01 1.170199e+01 3.087599e+01 1.248530e+01 5.693491e+00 2.430096e+01 4.080459e+01 2.220533e+01 4.595319e+01 3.931419e+01 4.127435e+00 2.476322e+01 4.402944e+00 1.969930e-01 7.469258e-01 2.461795e+00 1.009680e+00 2.116408e+00 1.586881e+00 2.835875e+00 5.284028e+00 4.491883e+00 1.993812e+00 1.477348e+00 6.162536e+00 1.339539e-01 5.682765e-01 3.204856e-01 1.190157e-01 1.609260e-01 5.094650e-01 2.309833e-01 2.266896e-01 5.979782e-01 1.241489e+00 4.918671e-01 1.760290e-01 1.750447e-01 2.292055e-01
<GCONST> 9.838032e+01
<STATE> 4
<NUMMIXES> 2
<MIXTURE> 1 6.002939e-01
<MEAN> 39
 -1.196547e+01 -3.447999e+00 -3.980077e+00 -7.136231e+00 -1.050093e+01 -1.946062e+01 -7.239310e+00 -4.651505e+00 1.065184e+01 -6.936234e+00 -4.512658e+00 -7.431678e+00 7.009296e+01 9.732545e-01 -1.261236e+00 3.284544e+00 4.215744e-01 -5.129657e-01 -3.414159e+00 -3.739707e+00 2.553846e+00 7.601778e-01 6.059931e-01 6.709542e-01 -6.005083e-01 3.254643e+00 2.107868e+00 -1.091451e+00 8.712735e-01 2.123958e-01 2.957807e-01 8.769118e-01 -1.195404e+00 2.453874e-01 -1.323584e+00 1.545698e+00 1.408338e-01 -1.069481e+00 -4.596899e-01
<VARIANCE> 39
 1.029396e+01 4.511652e+00 1.050293e+01 1.363252e+01 2.035090e+01 1.962356e+01 2.391547e+01 7.160444e+01 2.197844e+01 1.152582e+01 7.441380e+00 2.674325e+01 2.300548e+00 3.412737e+00 2.699119e+00 7.333935e-01 1.738955e+00 1.988572e+00 1.695012e+00 3.162653e+00 1.290856e+00 5.404722e+00 2.741755e+00 9.622846e-01 1.379083e+00 8.961332e-01 2.100478e-01 9.811169e-02 2.282247e-01 2.259658e-01 5.745749e-01 1.694111e-01 1.063680e+00 1.167450e+00 8.765488e-01 2.204944e-01 1.142406e-01 5.855371e-01 1.089277e-01
<GCONST> 9.800562e+01
<MIXTURE> 2 3.997062e-01
<MEAN> 39
 -1.073378e+01 -6.568821e+00 -4.827299e+00 -1.130515e+01 -1.549769e+01 -1.994883e+01 -9.721529e-01 1.597727e+00 -2.454071e+00 -9.963565e+00 -3.991612e+00 -5.561812e+00 7.352940e+01 -1.094511e-01 1.294292e+00 2.810695e+00 -2.005395e-01 -1.461560e+00 -3.683861e+00 -2.544157e+00 1.140897e-01 -3.907101e+00 -5.231507e-01 3.730007e-01 2.154023e+00 2.074236e+00 1.351256e+00 -5.017810e-01 4.286197e-01 -1.715666e-01 8.860627e-01 1.000616e+00 -5.094150e-01 1.459167e-01 -1.945639e-01 -1.424415e-02 -5.302538e-01 2.181222e-01 -6.036608e-01
<VARIANCE> 39
 2.262992e+01 1.247734e+01 9.933380e+00 4.443694e+00 5.799220e+01 4.599529e+01 8.119372e+01 5.670469e+01 2.889635e+01 4.988462e+01 9.283702e+01 1.451991e+02 1.707454e+01 4.856380e+00 1.944526e+00 1.141387e+00 6.482766e-01 3.930763e+00 1.906861e+00 4.962741e+00 1.457253e+00 2.307883e+00 7.312994e+00 1.538908e+00 1.157689e+01 1.582382e+00 4.177192e-01 2.598547e-01 3.788309e-01 2.809583e-01 1.225700e+00 9.291857e-01 1.405807e+00 4.158749e-01 9.582412e-01 1.059175e+00 1.521952e-01 1.676273e+00 2.895065e-01
<GCONST> 1.216950e+02
<TRANSP> 5
 0.000000e+00 1.000000e+00 0.000000e+00 0.000000e+00 0.000000e+00
 0.000000e+00 7.171984e-01 2.828016e-01 0.000000e+00 0.000000e+00
 0.000000e+00 0.000000e+00 4.166671e-01 5.833330e-01 0.000000e+00
 0.000000e+00 0.000000e+00 0.000000e+00 5.338269e-01 4.661731e-01
 0.000000e+00 0.000000e+00 0.000000e+00 0.000000e+00 0.000000e+00
<ENDHMM>
~h "b"
<BEGINHMM>
<NUMSTATES> 5
<STATE> 2
<NUMMIXES> 2
<MIXTURE> 1 5.923709e-01
<MEAN> 39
 5.300579e+00 -1.903885e+01 1.032520e+01 -1.095891e+01 -1.077501e+01 -1.569478e+01 -1.986273e+01 1.166962e+01 -9.062655e-01 3.708536e+00 -6.211137e-01 -1.335282e+01 7.554723e+01 3.188381e-01 5.505196e-01 -2.636295e-01 8.902367e-01 1.245889e-02 -9.829251e-02 -1.058437e+00 -1.031043e+00 -1.116099e-01 4.493333e-02 1.041078e+00 4.796192e-01 -4.784613e-01 -2.307714e-02 8.159943e-02 -3.069152e-02 6.665847e-02 8.012152e-02 1.111006e-01 -4.935431e-02 -1.680602e-01 -3.052915e-02 -6.826680e-02 -2.685102e-03 3.428247e-03 -5.706486e-02
<VARIANCE> 39
 3.313794e+00 8.578347e+00 6.451245e+00 2.570699e+01 2.981865e+00 4.533671e+01 7.218252e+01 2.559293e+01 2.167733e+01 9.783086e+00 3.946837e+01 2.818322e+01 2.566220e+00 2.687001e-01 5.695569e-01 6.274776e-01 3.333351e-01 4.175214e-01 9.046278e-01 1.235146e+00 3.391873e+00 1.771481e-01 5.833055e-01 1.470731e+00 5.799644e-01 2.128292e-01 4.449747e-02 8.851784e-02 9.036312e-02 4.547018e-02 7.923619e-02 1.189975e-01 1.696196e-01 4.222233e-01 4.494622e-02 9.032294e-02 2.358535e-01 1.277059e-01 1.807098e-02
<GCONST> 6.756388e+01
<MIXTURE> 2 4.076294e-01
<MEAN> 39
 4.228858e+00 -1.290934e+01 5.669850e+00 -6.861948e+00 -1.047026e+01 -1.953026e+01 -9.477798e+00 3.454968e+00 -4.726472e+00 -3.324648e+00 1.789534e-01 -1.107517e+01 7.288692e+01 -7.945492e-04 1.355714e-01 3.464909e-01 5.452414e-01 -7.243329e-01 -4.665942e-01 1.278479e-01 7.654382e-01 -1.315140e-01 -1.734966e-01 6.700632e-02 2.099294e-01 -3.238660e-01 -6.062877e-02 -3.246058e-01 2.453168e-01 -2.240145e-01 -3.053493e-01 -1.870536e-01 1.373286e-01 6.384607e-01 3.358303e-02 2.154614e-02 -1.884330e-01 8.373017e-02 1.776909e-01
<VARIANCE> 39
 1.393894e+01 1.637660e+01 1.032713e+01 3.276217e+01 1.027254e+01 8.572648e+00 3.955795e+02 2.095873e+01 1.468721e+01 7.993071e+01 3.069279e+01 9.386044e+00 4.246727e+00 1.905689e-01 5.561571e-01 6.680277e-01 4.897912e-01 1.310240e+00 4.349736e-01 1.688118e+00 1.950085e+00 5.354124e-01 1.407471e+00 1.795029e+00 1.028113e+00 4.573382e-01 3.110076e-02 5.060086e-02 1.330725e-01 1.182656e-01 6.967234e-02 1.000759e-01 3.061705e-01 3.195528e-01 8.254579e-02 1.932705e-01 3.435730e-01 1.219335e-01 5.355068e-02
<GCONST> 7.929133e+01
<STATE> 3
<NUMMIXES> 2
<MIXTURE> 1 6.712289e-01
<MEAN> 39
 4.735761e+00 -1.822886e+01 1.266466e+01 -4.962502e+00 -1.382476e+01 -2.045986e+01 -2.200515e+01 1.064282e+01 -2.062438e+00 -2.278757e-01 3.983904e-01 -1.003890e+01 7.464292e+01 -7.064069e-01 -1.507354e-01 9.538254e-01 -9.481142e-01 -1.410013e+00 -3.209026e-01 1.544875e+00 1.353005e+00 -4.931184e-01 -2.723629e-01 -1.982132e-01 5.698201e-01 5.560210e-01 -6.366195e-02 2.031125e-01 -1.119219e-01 -3.985808e-01 1.337907e-01 2.626916e-01 3.710088e-01 -1.448007e-01 -2.004347e-01 2.136813e-01 -2.348000e-02 7.279000e-02 -4.730402e-02
<VARIANCE> 39
 3.016853e+00 1.023999e+01 8.497331e+00 2.034507e+01 1.009724e+01 3.863274e+01 4.533596e+01 2.119608e+01 1.959573e+01 1.753860e+01 9.889782e+00 1.134241e+01 2.672565e+00 7.003403e-02 4.658821e-01 4.090052e-01 7.626789e-01 3.709999e-01 6.848559e-01 5.431255e-01 4.198340e-01 3.615426e-01 5.048777e-01 2.914191e-01 4.830792e-01 6.702689e-02 1.877908e-02 3.082486e-02 4.413684e-02 3.428255e-02 1.225289e-01 1.542903e-01 6.338108e-02 9.210591e-02 1.132905e-01 4.336445e-02 1.486108e-01 1.361759e-01 1.598874e-02
<GCONST> 5.442562e+01
<MIXTURE> 2 3.287710e-01
<MEAN> 39
 -4.012362e-01 -1.025311e+01 2.302492e+00 -1.131490e+01 -1.858938e+01 -1.781915e+01 1.383197e+01 2.737548e+00 -5.882541e+00 -1.258698e+01 -6.196939e+00 -8.229580e+00 7.023832e+01 4.524524e-01 2.653817e-02 -1.116561e-01 8.372491e-01 -5.369623e-01 8.540514e-01 -5.199158e-01 3.056086e-01 -8.986644e-01 5.268998e-01 -5.749567e-02 -3.903101e-01 -1.112783e+00 -2.024646e-02 7.345450e-02 2.042766e-01 2.016766e-02 1.779018e-01 8.643094e-03 -4.893778e-01 -1.274368e-01 -4.438208e-01 1.454752e-01 -1.737214e-01 7.495423e-02 1.388813e-01
<VARIANCE> 39
 6.863878e+00 8.196527e+00 2.093620e+00 3.604335e+00 4.469507e+01 1.117247e+01 7.712797e+00 5.075728e+01 4.423802e+00 1.551955e+01 5.363077e+01 8.392837e+00 6.244261e+00 3.517018e-01 2.184067e-01 2.192854e-01 1.761740e-01 1.604940e+00 6.345075e-01 4.303644e+00 3.984935e-01 9.260490e-01 1.589495e+00 1.015956e-01 5.913243e-01 2.160323e-01 1.538279e-02 1.194794e-01 5.954199e-02 1.949814e-02 4.019455e-01 1.764508e-01 9.257915e-01 1.224708e-01 3.738508e-02 5.098727e-01 1.339608e-01 2.114476e-01 1.397750e-02
<GCONST> 6.318627e+01
<STATE> 4
<NUMMIXES> 2
<MIXTURE> 1 5.917979e-01
<MEAN> 39
 2.065057e+00 -1.553206e+01 1.303862e+01 -9.655874e+00 -1.804847e+01 -2.017405e+01 -9.691201e+00 1.435075e+01 -6.700387e+00 -2.178912e+00 -3.091466e-01 -8.083581e+00 7.435770e+01 -4.384570e-01 2.385073e-01 7.091963e-01 -1.680799e+00 7.729103e-02 2.295072e-01 1.776684e+00 6.346822e-01 -7.450298e-01 3.294608e-01 -8.932391e-01 8.537403e-01 3.958457e-02 1.364746e-01 2.314052e-01 -2.623187e-01 8.504286e-02 3.946923e-01 1.511533e-01 -8.852515e-02 -3.092391e-01 2.466472e-01 -2.068307e-02 -2.328107e-01 -5.975576e-02 -2.645672e-01
<VARIANCE> 39
 1.623898e+00 2.533041e+01 2.593331e+01 1.123970e+01 9.559543e+00 3.202910e+01 1.820550e+02 1.021428e+01 1.763811e+01 2.817621e+01 1.633607e+01 1.336012e+01 1.185343e+01 1.555007e-01 7.315134e-02 2.589281e-01 1.088782e+00 4.567100e-01 8.278597e-01 1.272209e+00 4.350911e-01 1.088609e+00 3.258522e-01 1.199715e+00 8.146475e-01 8.227224e-02 1.059360e-02 2.773499e-02 4.510318e-02 1.294209e-01 3.928099e-02 8.511924e-02 3.880462e-02 6.736796e-02 1.035661e-01 9.159850e-02 1.654929e-01 1.553391e-01 2.004846e-02
<GCONST> 6.037248e+01
<MIXTURE> 2 4.082021e-01
<MEAN> 39
 -2.020252e-01 -8.537122e+00 1.002007e+00 -5.573006e+00 -1.584143e+01 -1.624943e+01 5.454426e+00 1.026272e+00 -1.280356e+01 -1.274812e+01 -9.707163e+00 -5.370677e+00 6.439066e+01 -5.513834e-01 5.381738e-01 -6.752830e-01 6.260691e-01 2.857772e-01 1.866080e-01 5.730256e-01 1.432424e+00 -3.436936e-01 -7.432965e-01 1.173389e+00 6.710693e-01 -1.008938e+00 -2.249353e-01 -1.082349e-01 -8.208006e-02 -2.895474e-01 2.497464e-01 1.943183e-01 4.170144e-01 4.161999e-02 3.462984e-01 -1.687066e-01 4.176349e-02 -5.794662e-02 3.146605e-02
<VARIANCE> 39
 3.677916e+00 2.913832e+00 5.568951e+00 1.050338e+01 3.490594e+00 4.937017e+00 1.541722e+01 1.618142e+01 6.421434e+00 7.989683e+00 4.899540e+01 2.140962e+01 5.870789e+00 5.900714e-01 4.953525e-01 2.161880e-01 1.238322e+00 4.312769e-01 1.177353e+00 1.640372e+00 6.387984e-01 1.035249e+00 4.245129e-01 5.497184e+00 2.139603e+00 2.122149e-02 6.976866e-02 6.024005e-02 3.659127e-02 1.667523e-01 6.196293e-02 1.695643e-01 3.018319e-01 1.980333e-01 2.692667e-02 1.678403e-01 1.303989e+00 5.369924e-01 4.169971e-03
<GCONST> 6.457891e+01
<TRANSP> 5
 0.000000e+00 1.000000e+00 0.000000e+00 0.000000e+00 0.000000e+00
 0.000000e+00 8.818330e-01 1.181671e-01 0.000000e+00 0.000000e+00
 0.000000e+00 0.000000e+00 7.442867e-01 2.557133e-01 0.000000e+00
 0.000000e+00 0.000000e+00 0.000000e+00 6.428258e-01 3.571741e-01
 0.000000e+00 0.000000e+00 0.000000e+00 0.000000e+00 0.000000e+00
<ENDHMM>
~h "c"
<BEGINHMM>
<NUMSTATES> 5
<STATE> 2
<NUMMIXES> 2
<MIXTURE> 1 6.633411e-01
<MEAN> 39
 5.721183e-01 7.309419e+00 7.777384e+00 -1.098976e+00 -1.119730e+01 -8.720101e+00 -7.029006e+00 -1.087409e+01 -8.109423e+00 1.206045e+00 -3.417682e+00 -1.076135e+01 5.708023e+01 -1.396403e+00 -7.943287e-01 -2.568815e+00 -1.491604e-01 3.109705e+00 -5.848379e-02 -2.150626e+00 1.387980e+00 9.969780e-01 6.561472e-01 4.333866e-01 -3.059860e-01 -1.728314e-01 1.077592e-01 -1.075987e+00 -9.796355e-01 -5.823840e-01 7.252377e-01 -4.834545e-02 -9.919124e-01 5.166708e-01 2.323366e-01 5.118508e-01 3.300160e-01 -3.635875e-01 9.701093e-01
<VARIANCE> 39
 6.617714e+00 7.197723e+00 1.458605e+01 1.166225e+01 1.664471e+01 1.316392e+01 2.423976e+01 2.667564e+01 1.835503e+01 3.141379e+01 7.412897e+00 1.389294e+01 5.085238e+00 3.468417e-01 3.897989e+00 4.786137e+00 2.828965e+00 5.171847e+00 1.436758e+00 6.218054e+00 4.747952e+00 2.352986e+00 2.988363e+00 1.676765e+00 1.246947e+00 3.193421e+00 1.250696e-01 2.468583e-01 6.952632e-01 7.759939e-01 6.873295e-01 4.420497e-01 5.981617e-01 4.486232e-01 6.231032e-01 6.859253e-01 4.368108e-01 1.879935e-01 3.733567e-01
<GCONST> 1.063671e+02
<MIXTURE> 2 3.366590e-01
<MEAN> 39
 -2.259484e+00 -3.310203e+00 -1.785555e+00 -9.811424e+00 -2.441028e+00 -9.500154e+00 -1.241490e+01 -1.222728e+01 -1.945913e+00 -2.707006e+00 -9.555161e+00 -2.568814e+00 6.460854e+01 -1.154776e+00 -2.891917e+00 -4.300671e+00 5.698917e-01 5.105502e+00 -2.116597e+00 -2.663973e+00 9.685448e-01 1.628051e+00 2.639050e+00 -4.164557e-01 -1.317983e+00 2.336261e+00 -3.864723e-03 1.555994e-01 2.495141e-01 -3.171410e-01 -2.855948e-01 -1.642192e-01 -2.673680e-01 2.055548e-01 -6.176484e-01 5.158316e-01 2.338778e-01 -4.020580e-01 5.448652e-01
<VARIANCE> 39
 4.319135e+00 4.833597e+01 5.552479e+01 5.713020e+01 1.010315e+02 6.886501e+01 4.692807e+01 8.529086e+01 4.721524e+01 1.348484e+01 5.923009e+01 6.180927e+01 4.622084e+01 5.666115e-01 6.316840e+00 7.459208e+00 1.444554e+01 6.044538e+00 9.341442e+00 2.596277e+00 6.658440e+00 1.205564e+01 3.102528e+00 1.612872e+00 1.060199e+00 3.936563e+00 2.136981e-01 7.904629e-01 1.891971e+00 2.159502e+00 3.496277e+00 2.289455e+00 1.070296e+00 9.284072e-01 1.926874e+00 2.456469e-01 6.286947e-01 2.440084e-01 1.869802e-01
<GCONST> 1.364886e+02
<STATE> 3
<NUMMIXES> 2
<MIXTURE> 1 5.656249e-01
<MEAN> 39
 -3.137510e+00 -3.158262e+00 -1.033301e+01 -7.336547e+00 4.461941e+00 -5.717677e+00 -2.159478e+01 -1.677244e+00 -6.356537e+00 1.113428e+01 2.641347e+00 -1.607322e+01 6.475343e+01 1.601141e+00 -9.600992e-01 1.848949e+00 -1.760042e+00 -2.000653e+00 5.170206e-01 -1.067405e+00 -9.668510e-02 -1.033488e+00 2.860190e-01 2.759128e+00 -1.318240e-01 1.083034e+00 6.413566e-01 2.896813e-01 1.547297e+00 -5.163021e-01 -1.776797e+00 -4.019752e-02 1.019389e+00 -1.433301e-01 -4.863532e-01 -6.973206e-01 1.692758e-01 4.561471e-01 -2.555345e-02
<VARIANCE> 39
 1.655460e+01 2.697641e+01 4.567157e+01 4.735217e+01 4.150447e+01 4.941553e+01 7.847163e+01 5.374596e+01 5.414193e+01 2.401272e+01 2.758269e+01 2.942095e+01 2.279385e+01 2.535204e+00 1.502716e+00 1.105259e+01 7.087400e+00 1.348896e+01 1.841194e+00 1.328359e+01 6.676355e+00 2.015493e+00 5.836784e+00 2.870914e+00 1.867886e+00 2.802217e+00 2.994651e-01 3.223874e-01 2.241393e+00 1.186902e+00 1.539235e+00 3.267753e-01 2.067837e+00 2.405153e+00 7.291936e-01 8.744493e-01 4.548629e-01 3.076448e-01 7.403551e-01
<GCONST> 1.338378e+02
<MIXTURE> 2 4.343751e-01
<MEAN> 39
 -5.418213e+00 -8.243474e+00 -6.550672e+00 -1.286889e+01 5.571668e+00 -1.860857e+01 -1.904869e+01 -6.060180e+00 -4.687624e-01 7.345619e+00 -8.752819e+00 -8.047531e+00 7.134919e+01 3.385133e-01 -3.384950e-01 -1.081762e+00 -2.909076e+00 -3.053277e-01 9.232042e-01 2.000098e-01 8.027194e-01 6.342093e-01 1.700442e-01 -3.515888e-01 -1.178443e+00 1.241179e+00 6.232162e-01 5.567024e-01 6.609020e-01 -1.140525e-01 -1.045755e+00 7.725927e-01 9.229882e-01 -4.031903e-01 8.070704e-02 -9.704093e-01 -3.245479e-02 2.349294e-01 -4.679832e-01
<VARIANCE> 39
 9.119679e+00 1.479657e+01 1.683992e+01 1.527577e+02 3.848406e+01 6.448920e+01 2.626925e+01 3.432809e+01 2.194424e+01 2.487708e+01 8.402550e+01 5.615979e+01 4.794294e+01 1.616185e+00 7.291338e+00 3.729562e+00 1.288410e+01 1.180185e+01 5.249282e+00 3.139005e+00 3.832947e+00 4.235192e+00 8.362801e+00 3.514663e+00 8.858169e-01 2.953202e+00 1.719737e-01 1.361607e+00 1.435959e+00 3.461231e+00 4.026354e+00 1.069120e+00 3.539782e-01 3.031029e-01 7.648354e-01 7.972334e-01 2.616740e-01 1.437403e-01 6.140605e-01
<GCONST> 1.315427e+02
<STATE> 4
<NUMMIXES> 2
<MIXTURE> 1 6.009418e-01
<MEAN> 39
 4.598777e+00 -7.095698e+00 -1.072438e+00 -2.183221e+01 -8.543447e+00 -5.043084e+00 -1.880464e+01 1.881524e+00 -1.072545e+01 9.133018e+00 9.595626e+00 -1.650148e+01 7.273426e+01 1.384555e-01 7.264495e-01 -4.054636e-01 -1.488940e+00 5.687820e-01 8.674121e-01 6.905626e-01 5.248736e-01 3.313755e-01 -2.380698e-01 -7.359020e-01 1.336315e-01 3.767308e-02 -2.333627e-01 5.409865e-01 -3.068091e-01 8.087260e-01 6.901184e-01 2.145394e-01 2.139869e-01 -3.695256e-01 4.874928e-01 -5.377624e-02 -4.438594e-01 2.618369e-01 -5.912921e-01
<VARIANCE> 39
 6.806807e+00 4.264231e+01 3.354819e+01 1.355533e+01 1.768753e+01 3.481092e+01 3.853116e+01 3.509066e+01 6.555643e+01 4.125236e+01 4.370189e+01 1.114837e+01 9.249993e+00 5.833367e-01 1.240384e+00 6.837313e-01 3.233059e+00 3.622011e+00 7.083924e-01 1.487530e+00 3.042100e+00 1.961409e+00 1.486261e+00 6.336336e-01 7.389841e-01 1.249996e+00 1.468718e-01 1.585891e-01 2.061876e-01 2.536918e-01 5.570244e-01 1.284694e-01 1.272744e-01 3.870750e-01 3.148531e-01 2.146817e-01 4.069668e-01 7.631500e-02 8.287743e-02
<GCONST> 9.585725e+01
<MIXTURE> 2 3.990583e-01
<MEAN> 39
 3.489662e+00 -1.024656e+01 2.087147e-02 -1.904292e+01 -7.838233e+00 -6.169456e+00 -1.933777e+01 2.815960e-01 -6.805470e+00 4.303567e+00 2.456538e+00 -1.304029e+01 7.433224e+01 1.148125e+00 -8.924652e-01 9.759162e-01 -1.798763e+00 -1.243343e+00 8.990251e-01 1.080933e-01 1.538652e+00 -1.269984e+00 -4.166352e-01 1.155188e+00 -5.885006e-01 7.019176e-01 -4.673318e-01 2.935643e-01 -6.349726e-01 2.879091e-02 1.142134e+00 -1.531018e-01 -1.402993e-01 -1.527814e-01 -1.108317e-01 1.629565e-01 -2.935592e-01 -2.144847e-01 -3.230220e-01
<VARIANCE> 39
 2.287642e+01 1.720915e+01 4.775894e+01 3.154249e+01 7.576032e+01 1.479251e+01 1.728120e+01 2.852472e+01 2.885759e+01 2.817762e+01 2.256595e+02 4.722622e+01 7.159473e+00 9.784600e-01 9.689782e-01 2.677281e+00 3.896316e+00 7.545549e+00 1.116918e+00 1.125979e+00 1.568098e+00 2.918800e+00 1.312097e+00 3.595896e+00 9.016642e-01 3.593329e+00 2.265685e-01 2.119796e-01 5.536140e-01 3.495221e-01 4.494109e-01 1.424015e-01 5.470617e-01 3.356575e-01 4.257309e-01 9.925115e-02 9.491906e-01 1.241449e-01 1.412648e-01
<GCONST> 1.085435e+02
<TRANSP> 5
 0.000000e+00 1.000000e+00 0.000000e+00 0.000000e+00 0.000000e+00
 0.000000e+00 7.877661e-01 2.122338e-01 0.000000e+00 0.000000e+00
 0.000000e+00 0.000000e+00 7.655942e-01 2.344058e-01 0.000000e+00
 0.000000e+00 0.000000e+00 0.000000e+00 8.083947e-01 1.916053e-01
 0.000000e+00 0.000000e+00 0.000000e+00 0.000000e+00 0.000000e+00
<ENDHMM>
~h "d"
<BEGINHMM>
<NUMSTATES> 5
<STATE> 2
<NUMMIXES> 2
<MIXTURE> 1 5.064203e-01
<MEAN> 39
 -3.774682e-01 -8.026000e+00 2.648457e+00 -1.876955e+01 -2.397276e+00 -2.020429e+01 -1.836623e+01 -1.752053e+00 6.047182e+00 6.665571e+00 -3.135959e+00 -1.617348e+01 7.661584e+01 1.106922e+00 -2.369894e+00 -1.305589e+00 -2.556898e+00 3.002130e-01 1.566356e+00 -1.707493e+00 5.910313e-02 5.982278e-01 2.894594e+00 1.220635e+00 -8.411816e-01 2.169705e+00 1.204057e-01 1.261058e+00 7.338824e-02 5.949709e-01 -2.872067e-01 9.255149e-01 8.004941e-01 -5.980277e-02 -8.747280e-01 -5.119022e-01 6.934942e-02 5.680811e-01 -1.157022e+00
<VARIANCE> 39
 1.013111e+01 1.542458e+01 5.194841e+01 2.346075e+01 3.403860e+01 5.684690e+01 1.096223e+02 4.936477e+01 3.237774e+01 4.391647e+01 2.596241e+01 1.745927e+01 5.477210e+00 1.555287e+00 4.530083e+00 1.544758e+00 2.397920e+00 4.277619e+00 4.311894e+00 4.125007e+00 2.319404e+00 4.747399e+00 2.492923e+00 1.061887e+00 1.502091e+00 6.274033e+00 4.349293e-01 3.450549e-01 1.900153e-01 1.785096e-01 8.158176e-01 1.100211e+00 4.375446e-01 5.982964e-01 2.675250e-01 5.672093e-01 2.385932e-01 3.930665e-01 3.793427e-01
<GCONST> 1.163344e+02
<MIXTURE> 2 4.935797e-01
<MEAN> 39
 -3.023910e+00 3.925181e+00 5.456129e+00 -7.955171e+00 -5.208563e+00 -1.752599e+01 -8.623744e+00 -6.698968e-01 -4.248520e+00 -4.409064e+00 -1.224916e+01 -6.299052e+00 6.535430e+01 -1.502320e+00 -4.184692e+00 -1.209612e+00 -2.329242e+00 1.280642e+00 -1.921412e+00 -1.381160e+00 1.581484e+00 1.058229e+00 1.587346e+00 -7.907930e-02 3.878779e-01 4.496546e+00 2.243318e-01 -4.370806e-01 -3.669024e-01 -7.522938e-01 5.106793e-02 5.325368e-01 -5.113738e-01 -1.390362e-01 4.832594e-01 5.207655e-01 2.673471e-01 -3.631389e-01 4.404284e-01
<VARIANCE> 39
 3.044980e+01 8.516705e+01 3.084202e+01 4.113157e+01 3.581655e+01 6.652790e+01 4.600240e+01 3.883466e+01 1.618175e+01 4.543959e+01 8.486214e+01 6.940199e+01 1.070811e+02 2.682856e+00 5.724301e+00 1.941880e+00 3.690993e+00 6.144320e+00 6.193673e+00 5.859340e+00 6.109422e+00 2.517874e+00 2.527069e+00 4.253567e+00 6.682048e+00 4.287186e+00 1.039970e+00 1.316300e+00 3.107287e-01 7.792249e-01 9.027447e-01 1.023898e+00 7.509459e-01 1.002408e+00 2.030471e-01 7.883813e-01 2.716689e-01 1.294502e+00 1.660888e+00
<GCONST> 1.366370e+02
<STATE> 3
<NUMMIXES> 2
<MIXTURE> 1 5.741736e-01
<MEAN> 39
 -8.784875e-01 -5.754463e+00 -1.856261e+00 -2.217255e+01 -7.282063e+00 -3.678611e+00 -1.993695e+01 2.472281e+00 -6.868096e+00 1.424835e+01 3.917575e+00 -1.303111e+01 7.827345e+01 3.734640e-01 3.799834e-01 -4.745720e-01 -3.937624e-01 1.422447e-01 1.057227e+00 5.308975e-01 8.515596e-02 -1.012062e+00 2.755370e-01 8.856220e-01 5.915110e-01 -3.428175e-01 -6.820168e-02 2.434354e-01 2.653238e-01 3.056345e-01 9.480407e-02 -2.594338e-01 1.476813e-01 -3.340097e-02 2.456818e-01 -3.053277e-01 -1.554707e-01 8.715044e-02 -3.199395e-01
<VARIANCE> 39
 9.248663e+00 1.972515e+01 3.650363e+01 1.096691e+01 2.581441e+01 7.398578e+01 4.283805e+01 2.175205e+01 1.046931e+02 1.660281e+01 2.399764e+01 8.416474e+00 2.438363e+00 4.985105e-02 1.352138e-01 3.869679e-01 1.012450e+00 6.894159e-01 9.731923e-01 5.251190e-01 5.161428e-01 2.323761e+00 1.144070e+00 4.813187e-01 5.505904e-01 2.530007e-01 4.379413e-02 6.948482e-02 3.441774e-02 5.292415e-02 1.934248e-01 1.616713e-01 2.038068e-01 8.368400e-02 2.676491e-01 2.387643e-01 1.176962e-01 1.587041e-01 1.219827e-01
<GCONST> 7.308813e+01
<MIXTURE> 2 4.258261e-01
<MEAN> 39
 -1.043880e+01 9.533378e-01 -5.407172e+00 -1.943770e+01 4.101385e+00 -2.459151e+00 -1.701753e+01 4.772480e+00 -6.407345e+00 5.997830e+00 -6.451124e+00 -4.389809e+00 7.382143e+01 -1.220906e+00 7.480862e-01 -4.466761e-02 -6.825188e-01 1.039618e+00 -5.895097e-02 4.941395e-02 -7.408344e-01 4.877718e-01 -1.151877e-01 8.564029e-01 -2.897519e-01 -6.723986e-01 -9.329551e-02 -1.044858e-01 1.761200e-01 -8.712602e-02 -1.802626e-01 -2.283875e-01 6.689174e-02 -1.482559e-01 -1.698455e-01 -3.555746e-02 1.497429e-01 1.981975e-01 1.421381e-02
<VARIANCE> 39
 4.696632e+01 1.147497e+02 1.903681e+01 2.042443e+01 3.599239e+01 5.836021e+01 7.576636e+00 2.874969e+01 5.472608e+01 3.645053e+01 2.879822e+02 1.596311e+01 8.835152e+01 3.246424e+00 1.429726e+00 2.705703e+00 1.151152e+00 3.595382e+00 1.744689e+00 3.879735e-01 3.611038e+00 9.030559e-01 5.210680e+00 1.606020e+00 4.166567e+00 7.779464e-01 5.701727e-01 2.790755e-01 3.880060e-01 2.385968e-01 4.898820e-01 2.045733e-01 1.004009e-01 7.928563e-01 2.183436e-01 1.075565e+00 3.010881e-01 5.249150e-01 1.329839e-01
<GCONST> 1.134618e+02
<STATE> 4
<NUMMIXES> 2
<MIXTURE> 1 6.628478e-01
<MEAN> 39
 -1.174417e+01 -3.786223e+00 2.244209e+00 -2.296063e+01 7.303534e-01 -8.615358e+00 -1.600693e+01 5.118226e+00 -5.460454e+00 6.783766e+00 8.095050e-01 -6.416366e+00 6.801037e+01 7.107048e-02 -4.282981e-01 5.236282e-01 6.066866e-02 -8.229623e-02 1.173418e-01 5.152205e-01 -5.714569e-02 -4.668326e-01 -4.288656e-01 -3.599287e-01 4.136119e-03 -3.771832e-01 5.433897e-02 5.226003e-02 -7.207212e-03 2.343855e-01 2.041865e-01 3.329564e-02 -1.210486e-01 -8.627113e-02 8.179474e-02 -1.699776e-02 -8.928533e-02 -1.450884e-01 -6.478277e-02
<VARIANCE> 39
 2.364328e+02 6.440263e+01 1.704848e+01 2.325380e+01 3.167964e+01 1.973533e+01 5.868340e+01 1.238496e+02 3.458398e+01 2.760616e+01 3.828796e+01 1.998435e+01 1.188636e+02 7.583862e-01 7.360495e-01 4.085032e-01 9.485168e-01 1.634644e+00 1.066384e+00 1.738151e+00 1.587180e+00 8.434862e-01 1.201935e+00 1.039837e+00 8.016756e-01 2.068672e-01 8.389164e-02 4.045559e-02 1.186312e-01 2.326196e-01 4.034512e-01 1.217820e-01 3.830165e-01 3.471491e-01 1.948720e-01 2.302077e-01 2.355425e-01 1.530184e-01 2.714504e-02
<GCONST> 9.485417e+01
<MIXTURE> 2 3.371518e-01
<MEAN> 39
 5.145898e+00 1.707340e+00 -1.634834e+01 -2.292471e+01 -6.863614e-01 -1.324738e+01 8.061002e-01 -1.103470e+01 1.258558e+01 5.569210e-01 7.505914e-01 -1.766792e+01 7.097896e+01 -5.726490e-02 3.415315e-01 1.866246e-01 2.168724e-02 -3.244779e-01 7.180383e-02 -2.908098e-01 -5.887294e-01 2.819666e-01 -5.719607e-01 -2.592945e-01 2.353824e-02 -2.829707e-01 -1.144337e-01 -1.265992e-01 8.190345e-02 1.143943e-01 -6.959931e-02 -1.643381e-01 -1.274877e-01 9.069415e-02 -1.203261e-01 -8.137423e-02 -2.992104e-01 -1.258910e-01 -9.741094e-03
<VARIANCE> 39
 2.759808e+00 5.684079e+00 7.913688e+00 4.019121e+00 7.337533e+00 2.226067e+01 7.137527e+00 1.773071e+01 9.235415e+00 1.017532e+01 1.161656e+01 9.809651e+00 2.862711e+00 2.782272e-01 5.058466e-01 6.521288e-01 6.424368e-01 2.878990e-01 4.737576e+00 1.176302e+00 1.411760e+00 1.375373e+00 1.697095e-01 2.751466e+00 1.311850e+00 4.743967e-02 1.019357e-02 6.637580e-02 6.067584e-02 8.915425e-02 6.394966e-02 7.826685e-01 2.015701e-01 1.764417e-01 3.038988e-01 6.368067e-02 3.410750e-01 2.637835e-01 8.603377e-03
<GCONST> 6.296591e+01
<TRANSP> 5
 0.000000e+00 1.000000e+00 0.000000e+00 0.000000e+00 0.000000e+00
 0.000000e+00 8.224511e-01 1.775489e-01 0.000000e+00 0.000000e+00
 0.000000e+00 0.000000e+00 8.370239e-01 1.629762e-01 0.000000e+00
 0.000000e+00 0.000000e+00 0.000000e+00 8.449936e-01 1.550065e-01
 0.000000e+00 0.000000e+00 0.000000e+00 0.000000e+00 0.000000e+00
<ENDHMM>
~h "e"
<BEGINHMM>
<NUMSTATES> 5
<STATE> 2
<NUMMIXES> 2
<MIXTURE> 1 6.714870e-01
<MEAN> 39
 1.845030e-01 -1.560043e+01 1.819813e+01 -1.205890e+01 -2.044195e+01 -2.116564e+01 -1.511170e+01 1.289214e+01 -8.644754e+00 1.516181e+00 2.177886e+00 -6.961614e+00 7.725052e+01 1.556038e-01 -7.001033e-02 1.756702e-01 -3.383056e-01 4.052224e-01 2.415589e-02 3.784721e-01 5.267518e-01 -3.644788e-01 2.783627e-02 -6.049760e-01 1.360530e-01 -2.751786e-01 -3.812316e-02 5.114533e-01 -2.682308e-01 5.457686e-01 1.535681e-01 6.660813e-02 1.247056e-01 -4.479755e-01 8.744700e-02 -2.631183e-01 -1.798585e-01 -9.084758e-04 -3.812725e-01
<VARIANCE> 39
 4.645398e+00 1.228116e+01 2.687780e+01 1.642888e+01 2.775346e+01 5.065693e+01 5.926721e+01 3.627016e+01 4.440591e+01 2.875829e+01 3.434372e+01 1.440932e+01 2.654539e+00 2.465164e-01 8.603439e-01 1.064041e+00 1.583282e+00 1.054165e+00 1.127041e+00 1.872805e+00 1.194309e+00 1.494951e+00 8.705652e-01 1.098657e+00 8.582883e-01 2.188944e-01 3.585323e-02 1.147487e-01 1.414197e-01 1.502986e-01 1.480640e-01 2.090549e-01 2.612208e-01 2.905638e-01 1.938340e-01 1.498085e-01 2.221010e-01 1.225612e-01 6.455131e-02
<GCONST> 8.441830e+01
<MIXTURE> 2 3.285132e-01
<MEAN> 39
 -2.657940e+00 -1.445000e+01 7.708914e+00 -1.334179e+01 -1.617381e+01 -2.026300e+01 -4.686826e+00 3.747363e+00 -2.349773e+00 -7.851962e-02 -6.797455e+00 -7.806275e+00 7.855679e+01 -5.254711e-02 -7.187939e-01 5.860328e-01 -1.021418e+00 1.612233e-01 6.375981e-01 8.330986e-01 1.114631e+00 -4.458497e-01 3.116516e-01 -3.958973e-01 -1.967968e-01 2.540022e-01 -3.810402e-01 6.156766e-01 -1.528659e-01 4.259935e-01 1.813701e-01 1.676857e-01 -4.697565e-02 -2.824918e-01 1.541603e-02 -2.567581e-01 2.422505e-01 9.972041e-02 -5.760361e-01
<VARIANCE> 39
 2.868483e+01 2.625996e+01 3.871157e+01 4.674550e+01 4.718910e+01 6.159292e+01 1.499659e+02 8.399043e+01 4.871154e+01 6.463098e+01 9.504835e+01 6.620573e+01 3.737204e+01 2.677971e-01 8.926418e-01 1.107691e+00 1.909055e+00 1.056051e+00 2.587668e+00 2.806825e+00 2.606927e+00 2.181929e+00 1.881779e+00 2.253060e+00 1.201445e+00 4.168945e-01 3.067755e-01 1.512270e-01 1.650747e-01 1.884187e-01 1.889247e-01 3.122459e-01 4.558430e-01 2.734797e-01 2.857817e-01 3.379086e-01 5.905915e-01 3.129282e-01 2.194111e-01
<GCONST> 1.104913e+02
<STATE> 3
<NUMMIXES> 2
<MIXTURE> 1 4.436308e-01
<MEAN> 39
 -3.208241e-02 -1.527319e+01 1.455847e+01 -1.228407e+01 -1.712113e+01 -2.244834e+01 -1.003196e+01 1.168668e+01 -7.292854e+00 2.773787e+00 -2.979344e+00 -6.939025e+00 7.693040e+01 -1.027686e-01 1.117258e+00 7.031527e-01 3.145194e-01 -1.456968e-01 3.629836e-01 5.179894e-02 -8.186399e-01 -5.061530e-01 -5.036615e-01 1.684388e-01 1.622077e-01 -7.938684e-01 -4.130515e-02 3.430180e-01 -6.718775e-02 2.482292e-01 7.007850e-02 1.891533e-01 -2.745737e-02 -2.880208e-01 1.677889e-01 -1.295458e-01 5.318002e-02 -1.069222e-01 -2.564591e-01
<VARIANCE> 39
 7.698725e+00 1.928914e+01 3.756556e+01 1.946372e+01 4.069870e+01 6.397868e+01 5.829053e+01 6.661932e+01 6.634115e+01 2.745355e+01 3.874439e+01 2.141427e+01 8.383275e+00 1.783506e-01 9.421949e-01 2.019508e+00 1.322469e+00 1.464715e+00 1.239486e+00 1.641760e+00 1.663003e+00 1.374759e+00 7.136846e-01 2.329847e+00 7.914611e-01 4.775524e-01 3.985298e-02 1.083640e-01 2.370927e-01 2.138835e-01 1.723231e-01 1.665539e-01 3.915739e-01 3.653490e-01 2.867764e-01 1.838653e-01 2.934155e-01 1.591780e-01 6.532842e-02
<GCONST> 9.375301e+01
<MIXTURE> 2 5.563695e-01
<MEAN> 39
 -8.334532e+00 -1.036299e+01 7.689068e+00 -2.236021e+01 -1.671861e+01 -1.803532e+01 6.622470e+00 -4.759955e+00 -6.027189e+00 -9.019333e-01 -1.081994e+01 -7.354347e+00 8.103408e+01 1.183892e-01 2.026448e-01 3.974001e-01 -4.498095e-02 -6.410245e-02 2.319774e-01 -4.563850e-01 -3.102577e-01 -3.016995e-01 -2.668229e-01 1.516568e-01 -3.938020e-02 -4.085418e-01 8.219742e-02 9.324589e-02 -5.866318e-02 1.684962e-01 -5.332189e-02 -5.006278e-02 -1.372129e-01 -1.830911e-02 -7.079908e-02 -1.977041e-01 6.525273e-02 4.043920e-02 -1.472295e-01
<VARIANCE> 39
 1.646660e+01 1.782998e+01 1.910273e+01 3.924686e+01 2.423791e+01 4.917506e+01 7.402639e+01 4.393925e+01 4.420094e+01 6.427668e+01 1.131090e+02 1.277163e+02 3.490788e+01 4.210395e-01 4.344741e-01 7.251760e-01 1.588731e+00 1.671738e+00 1.822607e+00 1.783604e+00 1.525046e+00 1.979717e+00 2.261329e+00 1.416221e+00 2.433473e+00 4.322480e-01 3.994516e-02 7.555656e-02 1.315957e-01 1.652863e-01 2.614931e-01 3.736091e-01 3.496805e-01 2.823723e-01 3.511654e-01 2.874698e-01 2.148425e-01 4.554327e-01 2.730585e-02
<GCONST> 1.001972e+02
<STATE> 4
<NUMMIXES> 2
<MIXTURE> 1 4.753771e-01
<MEAN> 39
 4.976583e-01 -9.013080e+00 1.508185e+01 -7.757120e+00 -1.680248e+01 -1.707393e+01 -9.743593e+00 1.035993e+01 -7.611651e+00 -9.649009e-01 -2.166111e+00 -7.789655e+00 7.057934e+01 -4.823437e-01 2.029407e+00 -5.682410e-01 1.498860e+00 5.959058e-01 6.932948e-01 1.757335e+00 -1.363229e+00 8.180296e-01 -4.137092e-01 -3.562242e-01 4.019282e-01 -2.039006e+00 -2.346867e-01 -7.406703e-02 -2.181309e-01 1.704399e-02 -2.439340e-01 -2.012341e-01 3.313789e-02 -3.062812e-01 2.890138e-01 -1.472148e-01 3.224156e-01 1.223412e-01 -3.036787e-02
<VARIANCE> 39
 5.164908e+00 2.520836e+01 2.929984e+01 2.862000e+01 3.670806e+01 5.532042e+01 1.057076e+02 5.956301e+01 4.317802e+01 3.817443e+01 3.821267e+01 1.852387e+01 2.139900e+01 7.881311e-01 1.220665e+00 1.222879e+00 1.778497e+00 2.546383e+00 2.120488e+00 3.108997e+00 3.730012e+00 2.626113e+00 2.248483e+00 1.636656e+00 1.023429e+00 7.703488e-01 2.058310e-01 2.158485e-01 1.732440e-01 3.277600e-01 4.334125e-01 3.756841e-01 6.585101e-01 5.222649e-01 4.516976e-01 3.103674e-01 3.275093e-01 1.756698e-01 1.385963e-01
<GCONST> 1.079197e+02
<MIXTURE> 2 5.246220e-01
<MEAN> 39
 -2.614507e+00 -4.424275e+00 9.069072e+00 -6.649043e+00 -1.798646e+01 -1.632620e+01 -1.720765e+00 5.501236e-01 -7.732463e+00 -4.621485e+00 -3.316865e+00 -6.445064e+00 6.430575e+01 -4.585628e-01 8.099154e-01 -1.081768e+00 7.599930e-01 -1.149661e-01 -2.874874e-01 -3.336588e-01 -7.796947e-01 2.896860e-01 -7.514128e-01 7.978133e-02 3.072653e-01 -1.553940e+00 -1.598840e-01 -9.219112e-02 -1.227654e-01 -2.101272e-01 1.964895e-01 -5.607202e-02 -1.210027e-01 1.398825e-01 7.304507e-02 1.876647e-01 -7.051133e-02 -5.757342e-02 1.955315e-01
<VARIANCE> 39
 8.798366e+00 1.216573e+01 2.593949e+01 5.855072e+01 1.774853e+01 5.572058e+01 6.545112e+01 6.448932e+01 4.801107e+01 4.631883e+01 4.209715e+01 3.962933e+01 3.984975e+01 8.285650e-01 6.029553e-01 1.351335e+00 2.067463e+00 1.360466e+00 2.470212e+00 3.395063e+00 3.309215e+00 2.614720e+00 3.427907e+00 2.456275e+00 2.724160e+00 2.676063e-01 1.227672e-01 1.183516e-01 2.275350e-01 2.739741e-01 2.610410e-01 4.514651e-01 6.281685e-01 5.338460e-01 6.918762e-01 5.068048e-01 5.018062e-01 4.213802e-01 6.467886e-02
<GCONST> 1.088947e+02
<TRANSP> 5
 0.000000e+00 1.000000e+00 0.000000e+00 0.000000e+00 0.000000e+00
 0.000000e+00 5.831481e-01 4.168519e-01 0.000000e+00 0.000000e+00
 0.000000e+00 0.000000e+00 7.654096e-01 2.345904e-01 0.000000e+00
 0.000000e+00 0.000000e+00 0.000000e+00 7.430317e-01 2.569683e-01
 0.000000e+00 0.000000e+00 0.000000e+00 0.000000e+00 0.000000e+00
<ENDHMM>
~h "i"
<BEGINHMM>
<NUMSTATES> 5
<STATE> 2
<NUMMIXES> 2
<MIXTURE> 1 4.739974e-01
<MEAN> 39
 -1.044632e+01 -1.318512e+00 1.456800e+01 -1.791376e+01 -2.153969e+01 -1.401636e+01 -1.129357e+01 -1.158507e+01 -5.182069e+00 -1.454234e+00 -1.199672e+01 -3.433855e+00 7.919164e+01 5.311536e-01 -5.070280e-01 -1.044107e-01 -1.521498e+00 4.427872e-01 2.615479e-01 -1.433536e-01 1.341173e+00 8.113986e-01 4.944285e-01 7.191347e-01 2.137421e-01 5.015212e-01 -3.766091e-01 -1.768140e-01 -6.129424e-01 8.023824e-01 6.929995e-01 4.004212e-01 8.196528e-01 -9.363165e-02 -1.092022e-01 5.252200e-02 6.792797e-01 5.288946e-02 -5.838496e-01
<VARIANCE> 39
 3.520129e+01 2.901920e+01 2.673981e+01 1.307684e+02 1.262732e+01 9.458194e+01 2.993691e+01 6.747037e+01 3.915596e+01 5.856705e+01 2.240314e+02 5.752865e+01 1.813216e+01 3.256711e-01 1.502999e+00 4.937074e-01 2.319375e+00 1.561254e+00 1.980189e+00 6.052096e-01 1.385800e+00 2.265288e+00 2.209625e+00 3.944017e+00 1.384844e+00 8.994613e-01 4.454727e-01 1.299213e-01 6.690527e-02 2.137738e-01 1.874682e-01 2.278976e-01 4.537521e-01 4.160645e-01 5.428253e-01 4.174720e-01 1.397242e+00 4.564678e-01 1.538294e-01
<GCONST> 1.094146e+02
<MIXTURE> 2 5.260026e-01
<MEAN> 39
 -3.759337e+00 -2.965881e+00 2.375376e+01 -1.359375e+01 -2.520583e+01 -1.194780e+01 -9.479773e+00 -2.254092e+00 -1.319367e+01 -2.823728e+00 2.246449e+00 -9.706234e+00 7.220998e+01 7.769334e-01 -5.004818e-01 -2.436388e-01 -6.917216e-01 6.385731e-01 1.949342e+00 -7.503678e-01 -4.008375e-01 4.653501e-02 -1.624784e-02 6.670734e-02 -1.131160e+00 -7.806635e-02 -6.208372e-01 3.876024e-02 -1.196988e+00 9.299982e-01 1.073179e+00 -3.394418e-01 9.938191e-01 -3.865609e-01 9.128425e-01 1.332673e-01 -1.984721e-01 3.555032e-01 -5.407808e-01
<VARIANCE> 39
 1.339123e+01 2.893139e+01 4.310201e+01 2.506735e+01 1.695785e+01 6.430779e+01 4.773903e+01 7.576161e+01 6.177114e+01 2.965573e+01 4.985778e+01 1.263691e+01 8.047026e+00 4.075767e-01 2.686311e+00 2.534681e+00 7.658096e+00 2.111135e+00 4.284056e+00 3.752536e+00 2.244061e+00 5.317169e+00 7.432023e+00 2.520718e+00 2.886680e+00 1.731826e+00 3.070008e-01 6.222365e-02 3.190065e-01 9.051053e-01 6.953352e-01 6.418236e-01 3.682547e-01 9.997712e-01 6.597985e-01 2.419431e-01 4.045242e-01 1.094810e-01 2.009831e-01
<GCONST> 1.158911e+02
<STATE> 3
<NUMMIXES> 2
<MIXTURE> 1 5.243635e-01
<MEAN> 39
 -1.683697e+00 -5.672515e+00 2.346194e+01 -9.665099e+00 -2.296502e+01 -1.379249e+01 -1.214172e+01 -1.661515e+00 -1.348188e+01 -3.115448e+00 4.377663e+00 -1.312576e+01 7.272375e+01 7.382740e-01 -4.390936e-01 -9.557886e-01 1.913843e-01 7.302551e-01 6.831627e-01 1.388105e-01 -3.111922e-01 1.506414e-01 7.934689e-01 -3.796189e-03 -1.810369e-01 -3.241226e-01 -1.523869e-01 2.358890e-01 -6.059089e-01 6.460627e-01 2.051985e-01 -5.435362e-01 4.774623e-01 5.441795e-02 5.769555e-01 7.069759e-02 -3.927227e-01 3.774351e-01 -1.516226e-01
<VARIANCE> 39
 9.879530e+00 2.775144e+01 1.297248e+01 6.221130e+01 3.342831e+01 6.106612e+01 8.162649e+01 3.316044e+01 3.511420e+01 4.724380e+01 3.759562e+01 1.524230e+01 8.391921e+00 2.503122e-01 2.214383e+00 1.205650e+00 5.093422e+00 1.805366e+00 2.823172e+00 2.683670e+00 3.011467e+00 1.320970e+00 3.190377e+00 1.428107e+00 1.336431e+00 7.612125e-01 9.266486e-02 2.536093e-01 1.057129e-01 5.291954e-01 2.413895e-01 5.559185e-01 4.665846e-01 1.313227e-01 1.752355e-01 4.550475e-01 1.767730e-01 1.474847e-01 7.967315e-02
<GCONST> 1.020157e+02
<MIXTURE> 2 4.756367e-01
<MEAN> 39
 -4.316672e+00 -4.597448e-01 1.423694e+01 -2.434325e+01 -2.192145e+01 -1.730311e+01 2.076020e+00 -8.735232e+00 6.296489e-02 -5.179668e+00 -4.937940e+00 -1.180289e+01 7.362386e+01 6.182831e-01 4.585345e-02 -9.437718e-01 1.028532e+00 2.035028e-01 3.664041e-01 8.511323e-01 2.540122e-01 -1.162765e-01 -1.803353e-01 -3.559896e-01 -1.065323e-01 -5.375584e-01 -1.203270e-01 5.808434e-02 -3.154142e-01 4.952193e-01 -1.183513e-01 1.713467e-01 3.916598e-02 -1.387924e-01 -1.134310e-01 3.935787e-02 8.779744e-03 -1.462030e-02 -9.445342e-02
<VARIANCE> 39
 1.614775e+01 1.553996e+01 1.948618e+01 5.551130e+01 4.651322e+01 3.162444e+01 1.322074e+02 4.736639e+01 4.888988e+01 5.947019e+01 3.425328e+01 5.402354e+01 1.700230e+01 2.711427e-01 1.885774e+00 9.500079e-01 3.834481e+00 3.713326e+00 2.652226e+00 5.741611e+00 2.784643e+00 3.051509e+00 2.247434e+00 2.506051e+00 2.507486e+00 7.713153e-01 1.275595e-01 1.517864e-01 1.527888e-01 3.224757e-01 5.518773e-01 5.083459e-01 6.793200e-01 3.511519e-01 4.307225e-01 3.254466e-01 8.679577e-01 4.203975e-01 6.039736e-02
<GCONST> 1.123022e+02
<STATE> 4
<NUMMIXES> 2
<MIXTURE> 1 5.274099e-01
<MEAN> 39
 3.429800e+00 -7.038266e+00 1.427528e+01 -3.139267e+00 -1.837973e+01 -1.212152e+01 -1.101949e+01 -5.155989e+00 -8.195786e+00 -9.076412e-01 2.913270e+00 -1.486471e+01 7.023972e+01 5.626615e-01 3.696446e-01 -1.187674e+00 9.059817e-01 3.108752e-01 -3.003622e-01 2.422630e-01 3.052426e-01 5.763041e-01 3.315951e-02 -4.032827e-01 4.875690e-01 -5.974842e-01 -1.760161e-01 3.587556e-01 1.470890e-01 -2.049281e-01 -8.018577e-02 -6.839732e-02 1.114974e-01 2.864970e-02 -9.260809e-02 -4.096066e-02 -6.397635e-02 1.279344e-01 -1.105733e-01
<VARIANCE> 39
 1.553206e+01 1.770478e+01 1.705733e+01 3.146855e+01 2.137772e+01 4.109301e+01 2.409650e+01 3.211490e+01 2.250217e+01 3.103207e+01 3.671443e+01 1.962595e+01 1.066691e+01 3.444662e-01 1.491820e+00 9.761329e-01 3.212990e+00 1.613273e+00 1.015428e+00 1.232452e+00 1.690694e+00 1.284186e+00 2.219895e+00 8.768787e-01 9.358212e-01 2.778945e-01 7.522628e-02 5.145077e-02 1.749811e-01 4.489723e-01 1.239255e-01 1.965538e-01 1.850924e-01 2.030144e-01 3.636023e-01 4.657368e-01 1.690287e-01 1.277630e-01 2.962132e-02
<GCONST> 8.955436e+01
<MIXTURE> 2 4.725905e-01
<MEAN> 39
 -5.557776e+00 3.137830e-01 7.345731e+00 -9.911135e+00 -2.184162e+01 -9.508739e+00 1.404708e+00 -8.858780e+00 -7.596343e+00 -1.747170e+00 -6.468775e+00 -7.070977e+00 6.882980e+01 -5.404145e-01 8.832663e-01 -1.683947e+00 1.567188e+00 -2.710313e-01 4.370474e-01 1.022854e+00 -4.534151e-01 1.171416e+00 -3.108670e-01 4.892939e-01 2.841723e-01 -7.489283e-01 -2.980309e-01 5.365439e-03 4.742540e-02 -2.315673e-01 -9.034096e-02 -1.043276e-01 6.357541e-02 1.344459e-01 -7.123943e-02 1.747051e-01 5.812226e-02 4.840453e-02 1.026171e-01
<VARIANCE> 39
 7.060982e+01 1.194541e+01 6.641344e+01 4.004570e+01 2.181260e+01 4.574830e+01 4.638609e+01 3.919681e+01 3.538618e+01 6.393242e+01 3.073745e+01 3.723317e+01 2.814017e+01 2.010000e+00 3.393773e+00 3.249816e+00 3.063782e+00 1.269139e+00 1.963829e+00 3.943389e+00 2.661794e+00 2.434068e+00 2.788431e+00 3.142817e+00 1.053306e+00 2.764349e-01 3.158039e-01 1.588423e-01 3.026232e-01 2.910765e-01 2.006074e-01 2.432802e-01 5.260609e-01 1.716302e-01 5.859349e-01 6.588948e-01 6.460375e-01 2.673067e-01 5.401702e-02
<GCONST> 1.116518e+02
<TRANSP> 5
 0.000000e+00 1.000000e+00 0.000000e+00 0.000000e+00 0.000000e+00
 0.000000e+00 3.232326e-01 6.767673e-01 0.000000e+00 0.000000e+00
 0.000000e+00 0.000000e+00 6.449326e-01 3.550673e-01 0.000000e+00
 0.000000e+00 0.000000e+00 0.000000e+00 7.280595e-01 2.719405e-01
 0.000000e+00 0.000000e+00 0.000000e+00 0.000000e+00 0.000000e+00
<ENDHMM>
~h "k"
<BEGINHMM>
<NUMSTATES> 5
<STATE> 2
<NUMMIXES> 2
<MIXTURE> 1 6.020775e-01
<MEAN> 39
 6.777309e+00 -1.332618e+01 -1.492810e+00 -2.302886e+01 -1.161687e+01 -6.930510e+00 -1.115482e+01 6.827855e+00 -1.257311e+01 9.254307e+00 3.181349e+00 -1.155731e+01 7.576885e+01 -1.464292e+00 -2.250493e+00 -3.062598e-01 1.218654e+00 2.128583e+00 -5.244059e-01 -5.477149e-01 -6.592892e-01 1.915706e+00 3.098265e+00 -1.773795e+00 -1.188108e+00 1.864542e+00 -7.804947e-02 6.509525e-01 -1.190585e-01 2.667236e-01 2.740467e-02 -3.579838e-01 -8.435285e-02 1.947837e-01 7.152368e-01 -6.392357e-01 -6.486048e-01 -1.304492e-01 -2.972138e-01
<VARIANCE> 39
 6.012600e+00 2.793441e+01 3.099612e+01 1.178157e+01 3.760627e+01 6.170347e+01 6.686594e+01 3.990070e+01 2.707831e+01 3.135730e+01 6.335272e+01 3.927824e+01 7.904247e+00 1.884454e-01 1.113250e+00 9.024335e-01 8.106509e-01 2.277423e+00 7.551605e-01 3.920615e+00 3.130250e+00 4.338891e+00 2.539393e+00 4.151342e+00 2.015231e+00 1.437616e-01 5.637085e-02 1.835850e-01 9.624491e-02 1.575166e-01 3.735155e-01 2.191051e-01 4.817170e-01 4.641208e-01 5.243692e-01 5.048852e-01 4.289602e-01 4.231663e-01 4.824477e-02
<GCONST> 9.990254e+01
<MIXTURE> 2 3.979225e-01
<MEAN> 39
 8.737561e+00 -4.127810e+00 -6.917160e+00 -2.872299e+01 -8.577285e+00 -3.853565e+00 -1.032087e+01 2.849670e+00 -5.238970e+00 -2.011782e+00 -3.611050e+00 -1.137634e+01 7.055687e+01 -1.756258e-02 -3.900046e+00 2.279986e-01 8.917791e-01 2.149769e+00 9.077872e-02 -1.571495e+00 2.898915e-01 -9.669609e-03 1.324611e+00 8.224049e-01 -2.921436e+00 3.315421e+00 -7.582378e-01 -1.879563e-01 -4.437659e-01 1.008181e+00 -1.304316e-01 -9.388133e-01 9.541299e-01 1.290409e-01 4.102609e-01 -5.625736e-03 -4.769119e-01 -1.269557e-03 -5.383345e-01
<VARIANCE> 39
 8.769182e+00 5.747775e+01 9.026198e+01 5.882735e+00 1.184752e+02 1.354870e+01 5.866726e+01 8.972514e+01 1.519753e+01 1.834791e+01 1.455479e+02 1.037233e+02 1.752255e+01 1.569279e+00 2.940418e+00 5.489712e+00 5.534334e+00 5.498258e+00 4.439442e+00 3.923229e+00 3.038612e+00 5.227023e+00 4.712057e+00 2.679924e+00 2.069672e+00 3.416627e+00 9.139521e-02 7.336189e-01 7.472700e-01 4.894939e-01 1.069276e+00 3.178042e-01 5.429810e-01 4.027977e-01 3.164417e-01 1.737537e+00 1.023153e+00 8.734600e-01 2.968777e-01
<GCONST> 1.267703e+02
<STATE> 3
<NUMMIXES> 2
<MIXTURE> 1 6.057907e-01
<MEAN> 39
 7.036552e-01 -1.719129e+01 -3.290637e+00 -1.761773e+01 -6.328941e+00 -7.833939e+00 -1.401959e+01 9.826172e+00 -4.454937e+00 1.404590e+01 -1.055074e+01 -1.498001e+01 8.080689e+01 -5.407701e-01 1.149057e-01 9.152847e-01 9.281489e-01 4.715226e-01 -2.287551e+00 -5.286461e-01 4.381722e-01 2.079848e+00 -9.222718e-01 -1.302565e+00 -3.323057e-02 1.552297e-01 4.752282e-01 6.825697e-01 1.408496e-01 -3.903389e-02 -1.640802e-01 -1.658470e-01 3.847528e-01 -1.009643e+00 -3.172651e-01 -7.429792e-01 1.182230e+00 5.711135e-01 -8.561025e-01
<VARIANCE> 39
 1.267366e+01 8.352127e+00 5.242493e+01 8.517057e+00 3.028099e+01 4.811425e+01 2.679394e+01 5.273265e+01 1.099801e+02 3.002189e+01 4.095007e+01 2.004118e+01 8.890024e+00 1.607849e-01 1.377906e+00 1.742696e-01 8.727210e-01 5.341412e-01 7.323672e-01 1.458822e+00 2.770816e+00 2.195285e+00 1.273774e+00 2.580877e+00 1.530221e+00 6.457593e-01 5.965221e-02 1.260383e-01 2.338290e-01 6.634238e-01 2.651840e-01 6.335152e-01 1.783812e-01 3.822438e-01 6.565779e-01 3.379232e-01 1.902330e-01 7.590350e-01 7.111082e-02
<GCONST> 9.570019e+01
<MIXTURE> 2 3.942093e-01
<MEAN> 39
 1.709982e+00 -1.530389e+01 -7.308028e+00 -1.469077e+01 -5.670984e+00 -8.589778e+00 -1.278563e+01 1.068255e+00 4.844480e-01 4.524431e+00 -3.121176e-01 -1.896895e+01 7.894958e+01 -1.599295e+00 -9.721088e-01 1.276996e-01 2.941710e+00 4.772227e-01 -2.487814e+00 1.004570e+00 -3.401917e-01 3.178940e+00 -1.002780e+00 -2.868930e+00 -6.342006e-01 1.255005e+00 3.053185e-01 5.761037e-01 3.756553e-01 -3.938913e-01 -4.316477e-01 -3.522469e-01 3.642595e-01 -9.281527e-02 -3.577546e-01 -6.853208e-01 -1.528888e-01 1.184301e+00 -6.085406e-01
<VARIANCE> 39
 1.244914e+01 9.363641e+00 6.367120e+01 2.171758e+01 7.913460e+01 5.158866e+01 1.020854e+02 4.112426e+01 2.217190e+01 1.205756e+02 1.375238e+02 4.935057e+01 1.137033e+01 1.106685e-01 1.746003e+00 6.770186e-01 3.036794e+00 2.559993e+00 2.617016e+00 2.072525e+00 1.158085e+00 1.167517e+00 5.837237e+00 5.061693e+00 2.491366e+00 1.929307e-01 2.389703e-02 1.084477e-01 1.002144e-01 6.043298e-02 6.546424e-01 8.017582e-01 2.061869e-01 1.996151e-01 2.220376e-01 3.015524e-01 6.142077e-01 4.843411e-01 1.709109e-01
<GCONST> 1.035521e+02
<STATE> 4
<NUMMIXES> 2
<MIXTURE> 1 4.794085e-01
<MEAN> 39
 2.257594e+00 -1.623899e+01 1.774335e+00 -1.656855e+01 -2.297179e+00 -1.982577e+01 -1.411257e+01 3.262521e+00 6.227070e+00 7.518075e+00 -9.159655e+00 -1.374214e+01 7.941998e+01 6.536679e-01 1.768727e+00 1.204540e-01 1.931324e+00 5.179353e-01 1.288391e-01 2.692511e-01 -3.156775e+00 -3.576193e-01 -1.074190e+00 7.564435e-01 6.038557e-02 -2.314883e+00 2.432828e-01 2.150175e-01 -4.120722e-01 2.581814e-01 6.360170e-02 1.686414e+00 3.575870e-01 -1.627350e-01 -1.288315e+00 -3.024059e-02 -1.783483e-01 -2.292699e-01 -8.060803e-01
<VARIANCE> 39
 1.111858e+01 6.808789e+00 3.076301e+01 1.271410e+01 2.872878e+01 4.152291e+01 5.523432e+01 6.665255e+01 1.018583e+02 3.420713e+01 4.189790e+01 6.433797e+01 1.122919e+01 1.613422e-01 9.253475e-01 1.858278e+00 1.385040e+00 3.837774e-01 7.263444e+00 4.054534e+00 7.911698e-01 4.020775e+00 7.492098e-01 1.672389e+00 1.521950e+00 8.446677e-01 8.268661e-02 1.845303e-01 1.419445e-01 1.838873e-01 2.614028e-01 5.907136e-01 6.044382e-01 7.619290e-01 6.863613e-01 2.940519e-01 2.018282e-01 2.469861e-01 3.803036e-02
<GCONST> 1.005043e+02
<MIXTURE> 2 5.205913e-01
<MEAN> 39
 -2.953220e+00 -1.600022e+01 -8.066537e+00 -1.316075e+01 -2.700577e+00 -1.504039e+01 -7.391884e+00 -3.724334e+00 5.151370e+00 -2.580535e+00 -1.815137e+01 -6.407566e-01 8.195740e+01 2.167544e-01 7.690557e-01 4.791581e-01 5.054765e-01 -6.867706e-01 -1.171107e+00 3.569463e-01 -7.279769e-01 -4.041686e-01 -1.556695e+00 7.936255e-01 7.983985e-01 -9.718521e-01 2.823245e-01 1.717846e-01 2.863703e-02 -2.843794e-01 -1.315975e-01 7.577800e-01 -8.489025e-02 1.708892e-01 -6.500030e-01 2.694888e-01 2.615918e-01 -3.561096e-01 -4.751341e-01
<VARIANCE> 39
 7.909587e+00 2.167305e+01 1.503432e+01 2.176473e+01 3.635075e+01 7.689340e+00 9.492854e+01 6.865526e+00 5.239821e+00 1.025812e+02 1.688179e+02 1.751673e+02 1.369635e+01 1.375209e+00 2.099128e+00 1.656649e+00 2.533879e+00 3.632002e+00 3.070514e+00 2.578746e+00 1.290389e+00 3.324037e+00 1.240751e+00 1.039383e+00 5.652953e+00 2.130132e+00 1.805469e-01 4.435593e-01 2.854258e-01 4.016697e-01 4.321568e-01 2.494321e-01 5.235896e-01 3.730893e-01 5.188739e-01 2.726283e-01 6.044139e-01 7.719218e-01 1.276944e-01
<GCONST> 1.106484e+02
<TRANSP> 5
 0.000000e+00 1.000000e+00 0.000000e+00 0.000000e+00 0.000000e+00
 0.000000e+00 7.661226e-01 2.338775e-01 0.000000e+00 0.000000e+00
 0.000000e+00 0.000000e+00 6.500590e-01 3.499410e-01 0.000000e+00
 0.000000e+00 0.000000e+00 0.000000e+00 6.666591e-01 3.333409e-01
 0.000000e+00 0.000000e+00 0.000000e+00 0.000000e+00 0.000000e+00
<ENDHMM>
~h "n"
<BEGINHMM>
<NUMSTATES> 5
<STATE> 2
<NUMMIXES> 2
<MIXTURE> 1 6.328459e-01
<MEAN> 39
 7.063908e+00 -9.559088e+00 7.992753e+00 2.848971e+00 -1.532752e+01 -9.719040e+00 -1.155279e+01 -8.480412e+00 -1.344738e+00 3.512472e+00 -3.872980e+00 -7.768827e+00 6.873569e+01 -3.307581e-01 -7.401826e-01 1.496171e-01 -2.564978e+00 2.802952e-01 1.530770e+00 -1.296701e+00 1.916708e+00 9.145003e-01 -8.154846e-01 3.128958e-01 8.666694e-01 8.581948e-01 -1.743914e-01 2.056621e-01 -6.950266e-02 -7.795922e-01 4.452521e-01 2.237847e-01 -3.766173e-01 6.049038e-01 5.723958e-02 -2.694458e-01 -4.559028e-02 -1.536604e-01 5.209221e-02
<VARIANCE> 39
 2.805246e+00 1.829749e+01 2.850053e+01 2.503163e+01 2.099361e+01 5.334484e+01 5.192418e+01 1.415970e+01 2.575262e+01 3.656033e+01 2.622590e+01 2.161225e+01 6.720632e+00 5.077322e-01 2.253440e+00 1.165368e+00 3.459699e+00 1.285514e+00 4.231910e+00 3.548619e+00 5.833083e+00 3.705032e+00 5.782366e+00 5.986277e+00 6.399989e-01 1.191308e+00 6.146207e-02 4.817690e-01 2.137356e-01 3.818475e-01 1.483573e-01 5.404513e-01 3.931725e-01 3.637121e-01 8.834239e-01 6.140640e-01 2.486096e-01 2.427247e-01 1.815650e-01
<GCONST> 1.061157e+02
<MIXTURE> 2 3.671541e-01
<MEAN> 39
 -6.248364e-01 -9.162421e+00 7.070390e+00 -9.265408e+00 -1.534113e+01 -1.201366e+01 -9.421148e+00 -1.142497e+01 -9.740315e+00 -7.747581e+00 -1.598132e+01 4.056101e+00 7.300729e+01 8.625702e-02 -1.635605e+00 -1.041878e+00 -1.535618e+00 7.610489e-01 -3.818018e-01 -9.634799e-01 2.837972e+00 9.013446e-01 -4.041462e-02 -8.991056e-01 -5.152889e-01 1.725630e+00 -1.139892e-01 3.206060e-01 -5.948660e-01 -3.414569e-01 9.773469e-01 -1.211304e-03 -4.234724e-01 4.005545e-01 5.225849e-01 1.238177e-01 2.831975e-01 -8.848094e-01 -2.812005e-01
<VARIANCE> 39
 1.139599e+01 3.790075e+01 1.348727e+01 4.850060e+01 3.546747e+01 4.378931e+01 9.723732e+01 1.865843e+02 3.779581e+01 1.537111e+02 1.022145e+02 1.931042e+02 3.163348e+01 1.410929e+00 1.292064e+00 2.510161e+00 2.902487e+00 6.993766e+00 3.757919e+00 6.035961e+00 1.377472e+01 2.949936e+00 8.010109e+00 9.438087e+00 1.056479e+01 2.220690e+00 2.100160e-01 2.166936e-01 2.148047e-01 4.266680e-01 1.561112e+00 6.942768e-01 1.486886e+00 2.581159e+00 7.866704e-01 2.253775e+00 1.247914e+00 9.292008e-01 1.795306e-01
<GCONST> 1.371822e+02
<STATE> 3
<NUMMIXES> 2
<MIXTURE> 1 4.620897e-01
<MEAN> 39
 5.389817e+00 -1.376643e+01 8.509134e+00 -9.520422e+00 -1.076046e+01 -3.139503e+00 -2.114866e+01 1.852442e+00 3.088022e+00 -1.603451e-01 -4.176379e+00 -7.651458e+00 7.303909e+01 -2.126107e-01 -2.092301e-01 -9.245010e-01 -2.709856e+00 1.647476e+00 1.519488e+00 -1.278436e+00 2.155558e+00 -4.988005e-02 -1.449893e-01 2.564738e-01 -7.287744e-01 5.536328e-01 1.045028e-01 4.597311e-01 -2.915958e-01 7.978471e-01 1.319340e-01 -4.161801e-01 7.075666e-01 -9.943092e-01 -5.306711e-01 6.450899e-01 -2.124331e-01 -1.090413e-01 -4.014572e-01
<VARIANCE> 39
 1.192348e+01 6.801029e+00 3.514619e+01 1.483855e+01 1.189520e+01 3.226180e+01 4.637347e+01 4.772126e+01 4.997866e+01 1.939982e+01 9.071223e+01 2.401318e+01 8.365916e+00 2.341930e-01 8.773723e-01 1.576203e+00 2.127232e+00 9.572092e-01 2.311623e+00 1.675722e+00 3.286668e+00 4.473515e+00 2.562761e+00 3.638405e+00 1.735215e+00 4.602284e-01 7.211708e-02 2.212192e-01 3.321880e-01 3.371918e-01 3.150171e-01 7.560246e-01 4.106360e-01 9.051846e-01 4.756511e-01 5.278045e-01 9.986243e-01 3.221856e-01 7.539972e-02
<GCONST> 1.044499e+02
<MIXTURE> 2 5.379101e-01
<MEAN> 39
 3.334686e-01 -6.382502e-01 4.250860e+00 -1.799371e+01 -9.048078e+00 -1.121897e+01 -1.024548e+01 -9.272716e+00 -4.320899e+00 -1.014023e+01 -1.057353e+01 -6.865740e+00 7.046016e+01 2.364750e-01 3.381202e-01 -8.407131e-01 -1.338727e-01 1.205390e+00 -6.904090e-01 4.625802e-01 8.495781e-02 -3.398658e-01 6.814976e-01 -1.293485e-01 -5.247468e-01 -4.779214e-01 -1.567421e-01 6.748634e-02 2.112338e-01 1.403880e-01 -1.354815e-01 1.421674e-01 1.815557e-01 -2.242845e-01 -8.438994e-02 -9.757699e-03 -6.863433e-03 2.737523e-01 -1.350373e-01
<VARIANCE> 39
 1.810853e+01 4.824000e+01 3.153615e+01 8.566351e+01 5.240773e+01 4.191048e+01 2.883283e+01 6.983602e+01 1.379893e+01 5.422879e+01 3.196216e+01 6.730981e+01 2.861279e+01 7.267201e-01 8.902793e-01 1.924829e+00 3.395626e+00 8.175061e+00 1.284810e+00 1.670088e+00 2.203089e+00 1.826836e+00 1.821819e+00 2.432136e+00 2.551802e+00 6.883181e-01 9.894475e-02 9.374665e-02 2.771599e-01 4.200622e-01 6.037661e-01 2.803473e-01 2.952633e-01 7.752886e-01 3.145259e-01 6.755697e-01 6.179595e-01 6.921442e-01 3.263517e-02
<GCONST> 1.111478e+02
<STATE> 4
<NUMMIXES> 2
<MIXTURE> 1 4.141521e-01
<MEAN> 39
 2.414629e+00 -1.214960e+01 3.827596e+00 -1.094658e+01 -6.714606e+00 -1.432409e+00 -2.105247e+01 2.839005e+00 -1.939233e-01 2.300713e+00 -9.724008e+00 -7.051301e+00 7.367472e+01 2.370930e-01 9.803835e-01 -9.858364e-01 2.309811e-01 1.208264e+00 4.689029e-01 1.248847e+00 -1.673132e+00 -1.129196e-01 4.485185e-01 3.144516e-01 -1.912221e-01 -9.415814e-01 1.056442e-01 2.258098e-01 2.604661e-01 4.682683e-01 -3.360961e-01 -3.197531e-01 7.848251e-01 -4.218921e-01 4.139379e-02 -2.901881e-01 3.203239e-01 2.816966e-01 -2.693608e-01
<VARIANCE> 39
 1.170083e+01 1.560366e+01 3.576677e+01 1.365846e+01 2.525966e+01 6.040101e+01 2.676645e+01 5.740222e+01 8.685039e+01 1.945887e+01 9.743490e+01 8.361569e+00 1.364503e+01 3.208074e-01 8.292429e-01 1.938319e+00 6.883643e-01 1.481206e+00 1.334865e+00 2.047537e+00 2.243361e+00 2.287358e+00 1.145409e+00 1.688153e+00 3.545263e-01 2.300206e-01 6.115396e-02 1.814534e-01 1.325914e-01 2.879998e-01 1.287647e-01 3.860219e-01 3.455397e-01 4.434276e-01 3.530116e-01 2.444453e-01 4.734432e-01 1.064464e-01 9.024158e-02
<GCONST> 9.415565e+01
<MIXTURE> 2 5.858481e-01
<MEAN> 39
 5.468835e+00 -6.140404e+00 3.297363e+00 -1.314393e+01 -1.020860e+01 -6.727190e+00 -9.591537e+00 -3.096043e+00 -7.934205e+00 -1.484190e-01 -9.710285e-01 -8.406554e+00 6.946024e+01 -4.899190e-01 2.025923e-01 5.239751e-02 -8.772016e-01 1.426179e+00 -3.015988e-01 1.238543e-01 7.801872e-01 -3.199085e-01 3.173780e-01 -6.422110e-02 -9.755490e-02 -2.637436e-01 -1.393913e-01 -2.752628e-01 5.776658e-03 4.652352e-01 1.898856e-02 -4.547955e-02 -3.393565e-01 -8.096161e-02 5.752032e-01 3.888272e-02 -1.363117e-01 -1.243004e-01 9.716041e-03
<VARIANCE> 39
 1.269834e+01 6.880176e+01 3.437480e+01 5.300142e+01 4.570430e+01 3.658912e+01 7.450327e+01 6.868777e+01 3.157598e+01 4.590091e+01 5.498321e+01 3.197539e+01 3.372261e+01 5.772361e-01 1.440927e+00 5.091498e-01 1.713374e+00 1.136539e+00 9.446536e-01 2.364885e+00 2.134530e+00 1.747536e+00 1.795764e+00 2.155875e+00 1.718990e+00 1.059724e+00 5.985855e-02 5.531566e-02 2.294428e-01 2.758444e-01 5.533982e-01 1.584952e-01 1.555188e-01 4.146351e-01 3.555886e-01 3.929270e-01 3.071138e-01 2.412838e-01 3.021388e-02
<GCONST> 1.023544e+02
<TRANSP> 5
 0.000000e+00 1.000000e+00 0.000000e+00 0.000000e+00 0.000000e+00
 0.000000e+00 6.248384e-01 3.751616e-01 0.000000e+00 0.000000e+00
 0.000000e+00 0.000000e+00 6.412901e-01 3.587099e-01 0.000000e+00
 0.000000e+00 0.000000e+00 0.000000e+00 6.080287e-01 3.919714e-01
 0.000000e+00 0.000000e+00 0.000000e+00 0.000000e+00 0.000000e+00
<ENDHMM>
~h "o"
<BEGINHMM>
<NUMSTATES> 5
<STATE> 2
<NUMMIXES> 2
<MIXTURE> 1 6.516799e-01
<MEAN> 39
 4.218341e+00 -1.235102e+01 4.712824e+00 -1.786146e+01 -4.215691e+00 -9.260886e+00 -2.084711e+01 2.664619e+00 -2.272929e+00 6.013963e+00 1.690517e+00 -1.336833e+01 7.415873e+01 -4.842557e-02 9.102132e-01 -1.632007e-01 1.113230e+00 9.180235e-01 3.838000e-01 6.955779e-01 -1.363509e-01 3.535130e-01 -8.568829e-01 -4.331227e-01 4.518247e-01 -1.132799e+00 -1.931812e-01 4.527364e-01 -1.782371e-01 3.939243e-01 -1.453419e-01 7.711127e-03 5.416331e-01 -1.277534e-01 2.104835e-01 -3.436198e-01 -1.350940e-01 3.483890e-01 -3.487101e-01
<VARIANCE> 39
 5.206462e+00 1.707390e+01 3.001656e+01 4.951590e+01 2.331145e+01 5.446382e+01 4.552360e+01 5.052341e+01 5.185331e+01 4.854089e+01 4.272731e+01 2.684286e+01 9.219800e+00 5.670184e-01 2.290829e+00 2.788632e+00 2.990399e+00 1.453939e+00 4.681775e+00 5.919399e+00 3.043710e+00 3.318190e+00 3.705296e+00 2.488461e+00 3.160047e+00 1.020212e+00 1.490755e-01 2.434909e-01 5.127201e-01 5.347098e-01 3.641270e-01 6.801456e-01 7.658805e-01 6.338781e-01 4.923161e-01 8.971646e-01 5.336627e-01 4.967646e-01 7.731613e-02
<GCONST> 1.158031e+02
<MIXTURE> 2 3.483205e-01
<MEAN> 39
 -2.074036e+00 -9.052979e+00 -5.634790e+00 -2.399155e+01 -1.399558e+00 -1.082176e+01 -8.231795e+00 -3.072507e+00 -4.050689e+00 1.157991e+00 -8.643742e+00 -5.576628e+00 7.808997e+01 -4.130601e-02 -1.885567e-01 1.009236e-01 1.039824e+00 1.227117e-01 -1.692847e-01 -5.151744e-01 -1.983781e-01 -1.683636e-01 -1.903934e-01 1.637425e-01 -6.764305e-01 2.811281e-01 -2.606554e-02 5.347921e-02 -3.624079e-02 5.610964e-01 -2.051147e-01 9.997744e-03 3.039743e-02 -1.125863e-02 2.597879e-01 -2.803075e-01 9.803488e-02 -1.178916e-01 -3.611542e-01
<VARIANCE> 39
 3.664575e+01 2.339488e+01 4.584478e+01 5.270481e+01 1.055488e+02 7.849426e+01 3.148566e+01 6.641702e+01 9.146255e+01 1.017039e+02 1.306138e+02 7.624247e+01 5.376559e+01 1.268500e+00 1.156044e+00 2.081798e+00 3.405907e+00 4.949404e+00 6.129223e+00 2.349252e+00 4.870492e+00 3.016690e+00 2.500503e+00 3.468151e+00 4.662006e+00 2.460601e+00 2.239526e-01 1.910438e-01 3.681082e-01 6.338874e-01 7.792175e-01 1.397971e+00 3.088164e-01 5.520199e-01 9.881235e-01 6.227518e-01 7.111999e-01 1.395772e+00 6.839918e-02
<GCONST> 1.296470e+02
<STATE> 3
<NUMMIXES> 2
<MIXTURE> 1 4.530795e-01
<MEAN> 39
 5.092253e+00 -5.161588e+00 -3.571606e-01 -1.325093e+01 -2.454911e+00 -2.659724e+00 -1.251594e+01 1.144907e+00 -1.233646e+00 2.756385e+00 -1.149456e+00 -1.076450e+01 6.721724e+01 -2.817051e-01 1.744884e+00 -7.752500e-01 2.186138e+00 4.716839e-01 5.748752e-01 1.946733e+00 -9.868225e-01 1.434939e-01 -6.256625e-01 7.936645e-02 9.241730e-01 -2.124610e+00 -2.428039e-01 -2.591080e-01 8.025715e-02 1.547505e-01 -2.220194e-01 -4.139502e-01 -3.528844e-01 -4.417760e-02 1.003587e-01 4.624700e-02 1.452012e-01 -6.131888e-02 -5.651420e-02
<VARIANCE> 39
 3.698390e+00 2.151778e+01 3.169325e+01 5.042107e+01 1.959901e+01 3.984503e+01 4.372638e+01 2.562750e+01 3.923529e+01 3.384913e+01 3.412428e+01 3.034341e+01 1.041576e+01 3.937225e-01 9.840848e-01 1.235308e+00 1.498974e+00 1.558607e+00 1.201056e+00 2.307468e+00 1.930760e+00 1.791569e+00 2.376642e+00 2.246868e+00 1.424346e+00 1.934038e-01 5.355117e-02 1.910747e-01 2.536111e-01 5.725521e-01 3.295555e-01 1.924303e-01 3.975766e-01 5.483097e-01 3.550132e-01 4.299361e-01 3.486561e-01 4.204626e-01 4.431728e-02
<GCONST> 9.863876e+01
<MIXTURE> 2 5.469208e-01
<MEAN> 39
 7.629402e-01 -5.455272e+00 -7.344281e+00 -2.110776e+01 3.777436e+00 -1.189021e+01 -6.442010e+00 -7.989864e+00 -2.361962e+00 -8.805544e+00 -6.712634e+00 -1.555639e+01 7.167004e+01 -5.632224e-02 5.152566e-01 -1.950572e-01 1.195593e+00 -2.218737e-01 3.577892e-02 2.120572e-01 -3.676928e-01 1.128753e-01 -1.441422e-01 1.437239e-01 -5.279014e-02 -7.072032e-01 -1.715344e-01 3.254973e-02 3.853747e-02 7.991857e-02 -2.610708e-01 -4.736880e-02 -1.692768e-02 2.360163e-01 5.197704e-02 1.024348e-01 -3.517875e-02 1.927419e-01 -2.945260e-02
<VARIANCE> 39
 1.546972e+01 2.862323e+01 2.443821e+01 5.009440e+01 4.636409e+01 2.499837e+01 3.551604e+01 3.055679e+01 3.738297e+01 7.670178e+01 4.672307e+01 3.149212e+01 1.890633e+01 1.299547e+00 7.813842e-01 1.307518e+00 1.986202e+00 2.574233e+00 2.353228e+00 2.921243e+00 2.673892e+00 3.060682e+00 2.999027e+00 2.052639e+00 1.715458e+00 4.905221e-01 1.059003e-01 1.241787e-01 2.045814e-01 2.584864e-01 3.415069e-01 3.501263e-01 4.352375e-01 3.866288e-01 4.950703e-01 4.819086e-01 4.109809e-01 2.297080e-01 5.002322e-02
<GCONST> 1.067444e+02
<STATE> 4
<NUMMIXES> 2
<MIXTURE> 1 3.535939e-01
<MEAN> 39
 -9.536523e-01 -1.371367e+00 -2.899229e+00 -6.528123e+00 -3.871489e+00 -5.341413e+00 -7.583966e+00 -2.424214e+00 1.258629e+00 -1.271752e-01 -1.226369e+00 -6.323761e+00 5.983559e+01 -1.334567e+00 5.430651e-01 -1.641515e-01 5.324799e-01 9.777700e-03 -5.356419e-01 7.270883e-01 5.027015e-03 1.970006e-01 -3.808829e-01 -3.292955e-01 4.845584e-01 -1.338527e+00 -1.041076e-01 -1.328108e-01 2.630084e-02 -3.302570e-01 -4.493841e-02 -9.772128e-03 -2.770024e-01 -8.268912e-02 -2.308789e-01 3.714548e-02 -1.164016e-02 -1.881913e-01 1.652405e-01
<VARIANCE> 39
 2.560835e+01 1.539906e+01 2.611188e+01 3.469416e+01 2.772923e+01 4.025958e+01 4.561269e+01 2.316408e+01 3.143777e+01 2.690026e+01 4.534171e+01 2.752242e+01 3.019593e+01 1.407882e+00 1.932973e+00 1.822184e+00 2.298527e+00 2.305139e+00 1.976869e+00 2.547413e+00 3.348088e+00 2.228336e+00 3.516880e+00 1.823663e+00 1.967143e+00 5.058565e-01 5.705914e-02 1.396486e-01 1.003566e-01 3.468373e-01 3.233999e-01 3.477482e-01 4.428365e-01 4.679328e-01 4.410962e-01 4.052059e-01 4.841124e-01 4.333370e-01 3.671189e-02
<GCONST> 1.059319e+02
<MIXTURE> 2 6.464065e-01
<MEAN> 39
 6.575254e-01 -3.282063e+00 -4.115900e+00 -7.683353e+00 -2.421393e+00 -6.530016e+00 -1.033999e+01 -4.374264e+00 -1.841022e-01 -2.173106e+00 -5.376854e+00 -9.104400e+00 6.036562e+01 -7.474728e-01 5.351707e-01 -5.294112e-01 7.178494e-02 -6.273713e-01 -2.555252e-01 -1.709633e-01 -4.139879e-01 2.206465e-01 -1.410469e-02 -9.649841e-02 9.415864e-02 -1.230077e+00 -8.239903e-02 -7.139005e-02 9.824312e-02 -2.561425e-01 -2.801920e-02 -7.725364e-02 -1.069972e-02 1.482623e-01 -4.037193e-03 3.408992e-02 -2.429251e-03 -5.678349e-02 1.250346e-01
<VARIANCE> 39
 5.976752e+00 1.762072e+01 2.424295e+01 2.982485e+01 1.987523e+01 2.969647e+01 2.058681e+01 3.412831e+01 2.710443e+01 5.394245e+01 4.376802e+01 1.833696e+01 1.213552e+01 2.634898e-01 5.048152e-01 1.214624e+00 1.183609e+00 1.400085e+00 1.779775e+00 1.299460e+00 1.560999e+00 2.248173e+00 2.548888e+00 2.225830e+00 1.554048e+00 1.909607e-01 3.479940e-02 7.239612e-02 2.222617e-01 2.065632e-01 2.878024e-01 2.880054e-01 3.044317e-01 2.963624e-01 4.431980e-01 4.574212e-01 4.253883e-01 2.058943e-01 1.793801e-02
<GCONST> 9.160916e+01
<TRANSP> 5
 0.000000e+00 1.000000e+00 0.000000e+00 0.000000e+00 0.000000e+00
 0.000000e+00 6.251287e-01 3.748713e-01 0.000000e+00 0.000000e+00
 0.000000e+00 0.000000e+00 7.386971e-01 2.613030e-01 0.000000e+00
 0.000000e+00 0.000000e+00 0.000000e+00 7.972160e-01 2.027840e-01
 0.000000e+00 0.000000e+00 0.000000e+00 0.000000e+00 0.000000e+00
<ENDHMM>
~h "r"
<BEGINHMM>
<NUMSTATES> 5
<STATE> 2
<NUMMIXES> 2
<MIXTURE> 1 6.008269e-01
<MEAN> 39
 7.742571e-01 -1.299260e+01 1.471037e+01 -6.475345e+00 -1.579492e+01 -1.919655e+01 -1.699049e+01 4.356958e+00 5.685251e-01 -5.407729e+00 7.198620e-01 -6.611065e+00 7.189799e+01 4.599386e-01 -9.793849e-01 -1.133129e+00 -3.500920e-02 -6.586946e-01 8.556839e-01 -1.545538e-02 6.291754e-01 1.283974e+00 2.712417e-01 9.198173e-01 -6.286834e-01 6.655161e-01 8.018979e-02 -3.201813e-02 -3.302133e-01 -3.115618e-01 1.124732e-01 7.619365e-02 -3.980023e-01 2.015539e-01 -1.288321e-01 5.727358e-01 -4.129352e-02 -6.110117e-01 3.867543e-01
<VARIANCE> 39
 1.142441e+01 2.740398e+01 3.012836e+01 2.049282e+01 2.782788e+01 1.978809e+01 6.600233e+01 4.277946e+01 4.456983e+01 8.049541e+01 2.581753e+01 2.910834e+01 1.567599e+01 9.091691e-01 1.375699e+00 1.206195e+00 1.766964e+00 2.410628e+00 1.503206e+00 3.311631e+00 2.673486e+00 5.177567e+00 4.974210e+00 3.075140e+00 2.936128e+00 1.080863e+00 2.587856e-01 9.316370e-01 1.936762e-01 5.913286e-01 1.136215e+00 4.603840e-01 8.829114e-01 8.301452e-01 7.195901e-01 1.035514e+00 8.388126e-01 3.554779e-01 4.713374e-01
<GCONST> 1.188365e+02
<MIXTURE> 2 3.991731e-01
<MEAN> 39
 -3.694649e+00 -1.322858e+01 8.347318e+00 -1.374096e+01 -1.655211e+01 -1.980980e+01 -7.222488e+00 3.158037e-01 -6.875590e+00 -1.577941e+00 -7.339562e+00 -4.490062e+00 7.619499e+01 4.899018e-01 -8.923585e-01 -1.449075e+00 -1.328186e-01 -2.916976e-01 -8.240025e-01 2.688116e-01 2.308130e+00 1.140615e-01 5.109113e-02 -1.043045e-01 -1.696990e+00 9.142683e-01 8.052807e-02 2.072973e-01 -1.780718e-01 -2.531316e-01 6.290866e-01 -4.852224e-02 9.921618e-03 -4.579394e-02 -1.361021e-01 1.758386e-01 -1.189825e-01 -2.712696e-01 2.955929e-02
<VARIANCE> 39
 1.791264e+01 2.872911e+01 2.110454e+01 7.480848e+01 2.532044e+01 5.428226e+01 7.185529e+01 1.038758e+02 6.015190e+01 3.578647e+01 1.182239e+02 1.132931e+02 3.124456e+01 1.496302e+00 6.363921e-01 3.997257e+00 2.536119e+00 1.871135e+00 4.126384e+00 5.092179e+00 3.653588e+00 1.679766e+00 1.089274e+00 1.278843e+00 6.608744e+00 1.653137e+00 2.147711e-01 4.135685e-01 3.551826e-01 5.727302e-01 6.463186e-01 9.355017e-01 4.769389e-01 9.493482e-01 3.028519e-01 5.910227e-01 6.792482e-01 1.253923e+00 2.888469e-01
<GCONST> 1.240916e+02
<STATE> 3
<NUMMIXES> 2
<MIXTURE> 1 5.923937e-01
<MEAN> 39
 4.629529e+00 -1.591199e+01 6.988241e+00 -5.828904e+00 -1.483080e+01 -1.886036e+01 -2.059699e+01 6.076758e+00 3.662282e+00 3.648613e+00 9.725590e-01 -1.566954e+01 7.479829e+01 7.477883e-01 3.620673e-02 -1.422067e+00 -1.888365e+00 1.669753e+00 1.647757e+00 -5.307052e-01 8.998357e-01 -6.548449e-01 2.896704e+00 -9.357039e-01 -1.765529e+00 1.131553e-01 -3.592972e-01 6.183309e-01 9.771205e-02 -5.169793e-01 7.760128e-01 6.433554e-01 4.121917e-01 -4.836535e-01 -3.469197e-01 -1.458756e-01 -2.513368e-01 6.409955e-01 -4.527903e-01
<VARIANCE> 39
 5.158104e+00 1.411733e+01 2.757520e+01 2.550272e+01 1.552763e+01 1.523059e+01 2.090111e+01 3.125934e+01 4.481176e+01 4.183945e+01 2.928208e+01 2.650705e+01 1.995911e+00 6.223401e-01 7.116053e-01 2.001095e+00 2.178622e+00 2.614065e+00 2.828615e+00 3.296219e+00 1.731421e+00 1.704646e+00 3.362864e+00 1.780429e+00 3.253023e+00 4.204577e-01 9.058210e-02 1.318423e-01 1.778398e-01 4.242285e-01 2.333479e-01 2.130639e-01 4.956628e-01 3.816654e-01 4.107106e-01 8.737687e-01 2.536973e-01 5.055910e-01 1.648613e-01
<GCONST> 9.982765e+01
<MIXTURE> 2 4.076063e-01
<MEAN> 39
 -2.437055e+00 -1.558685e+01 5.781608e+00 -1.933600e+01 -1.298351e+01 -2.095910e+01 -4.749392e+00 5.508202e+00 -6.377058e+00 -6.757531e+00 -1.153252e+01 -5.794994e+00 7.764498e+01 1.588969e-01 1.642703e-02 -8.932155e-01 -6.452607e-01 1.728873e+00 1.061533e+00 -8.298680e-02 -5.007979e-01 5.327414e-01 -1.597023e-01 -7.469585e-01 -1.164237e+00 -1.297238e-01 -1.391860e-01 5.457827e-01 -4.497612e-02 2.469855e-01 3.064071e-01 3.496008e-01 -3.003020e-01 -9.320493e-01 -1.334589e-01 1.925167e-01 4.652230e-01 -2.935687e-01 -2.234532e-01
<VARIANCE> 39
 8.854435e+00 1.247036e+01 3.306880e+01 5.096351e+01 1.043733e+02 4.843202e+01 6.310333e+01 5.859756e+01 7.022507e+01 1.012004e+02 8.323778e+01 4.016506e+01 1.212090e+01 4.356621e-01 7.036934e-01 1.407838e+00 9.235483e-01 3.321300e+00 1.438770e+00 1.611263e+00 2.447553e+00 9.853665e-01 2.376894e+00 3.466125e+00 3.043794e+00 3.993280e-01 4.513771e-02 1.521800e-01 3.735103e-01 2.310581e-01 5.991316e-01 5.748054e-01 3.749468e-01 6.215184e-01 5.566086e-01 6.101085e-01 5.790966e-01 5.212229e-01 3.598325e-02
<GCONST> 1.087832e+02
<STATE> 4
<NUMMIXES> 2
<MIXTURE> 1 5.237527e-01
<MEAN> 39
 5.799252e+00 -1.441923e+01 4.231079e+00 -1.438050e+01 -6.797356e+00 -9.642748e+00 -2.105401e+01 6.163558e+00 -1.409840e-02 8.019716e+00 -2.300574e+00 -1.683638e+01 7.347077e+01 1.533071e-01 1.329514e+00 -7.969189e-01 -1.962659e+00 2.011467e+00 2.441738e+00 7.111545e-01 -3.794518e-01 -9.847526e-01 6.893957e-02 -5.450237e-01 1.298354e+00 -9.398068e-01 -1.043130e-01 3.742729e-01 1.150727e-01 7.301684e-01 -3.320816e-01 -2.860885e-01 4.587599e-01 -1.794104e-01 1.555363e-01 -7.687591e-01 1.707171e-01 5.658116e-01 -3.646411e-01
<VARIANCE> 39
 2.564124e+00 1.254545e+01 2.059513e+01 2.039935e+01 1.580822e+01 3.937938e+01 2.315378e+01 1.769864e+01 3.436249e+01 1.780772e+01 2.625086e+01 2.449442e+01 3.424607e+00 2.346288e-01 5.484843e-01 8.955715e-01 1.580992e+00 1.268209e+00 1.728420e+00 5.498466e-01 1.431248e+00 9.036534e-01 4.103958e+00 1.051451e+00 2.513199e+00 3.320184e-01 3.249189e-02 8.510023e-02 1.518341e-01 3.837632e-01 3.703587e-01 2.564605e-01 3.889906e-01 2.514192e-01 2.421404e-01 5.990833e-01 2.373202e-01 5.565601e-01 5.568074e-02
<GCONST> 8.751903e+01
<MIXTURE> 2 4.762476e-01
<MEAN> 39
 -1.444297e+00 -1.503040e+01 4.259365e+00 -1.468718e+01 -1.323924e+01 -1.363083e+01 -5.469010e+00 -1.490792e+00 -3.492604e+00 -1.850109e+00 -1.001276e+01 -7.063004e+00 7.276108e+01 -5.176191e-02 9.237346e-01 -3.521449e-01 3.915989e-01 3.998742e-01 3.207264e-01 6.556127e-01 -1.467360e+00 2.992881e-01 -3.792873e-02 1.294115e+00 -9.224253e-01 -7.440803e-01 -2.971939e-02 1.825151e-01 -1.105821e-02 1.861406e-01 -2.106347e-01 -1.379679e-01 9.108336e-02 9.045333e-02 1.019002e-02 -2.253595e-01 -8.139039e-02 5.297173e-02 -8.028271e-02
<VARIANCE> 39
 5.883818e+00 1.703044e+01 3.968071e+01 5.287600e+01 7.222186e+01 4.197804e+01 5.725052e+01 7.745493e+01 3.932817e+01 5.584472e+01 6.582603e+01 3.809801e+01 3.405431e+01 2.131859e-01 3.093682e-01 1.557576e+00 1.424669e+00 5.357751e+00 2.701376e+00 1.764084e+00 3.225424e+00 1.875255e+00 3.027345e+00 3.895564e+00 2.014094e+00 3.678904e-01 2.863098e-02 1.169240e-01 1.156323e-01 3.147012e-01 6.770137e-01 2.201532e-01 5.094768e-01 6.438429e-01 3.751541e-01 4.932418e-01 7.200577e-01 2.800248e-01 2.708209e-02
<GCONST> 1.057541e+02
<TRANSP> 5
 0.000000e+00 1.000000e+00 0.000000e+00 0.000000e+00 0.000000e+00
 0.000000e+00 5.037445e-01 4.962555e-01 0.000000e+00 0.000000e+00
 0.000000e+00 0.000000e+00 5.085011e-01 4.914989e-01 0.000000e+00
 0.000000e+00 0.000000e+00 0.000000e+00 6.224927e-01 3.775074e-01
 0.000000e+00 0.000000e+00 0.000000e+00 0.000000e+00 0.000000e+00
<ENDHMM>
~h "s"
<BEGINHMM>
<NUMSTATES> 5
<STATE> 2
<NUMMIXES> 2
<MIXTURE> 1 6.006052e-01
<MEAN> 39
 -2.241508e+01 3.430986e+00 3.625750e+00 1.173588e+00 -1.382218e+01 -1.706188e+01 1.200922e+00 -2.402202e+00 -5.193453e-01 -5.863511e+00 -1.473564e+00 -2.568976e+00 6.561390e+01 -7.298836e-01 3.494791e-01 -1.808296e-01 4.369736e-01 -7.251361e-01 -7.272792e-01 1.048037e+00 -5.516893e-01 2.231807e-01 1.150344e-01 -2.411050e-02 1.737502e-02 -1.418439e-01 1.009689e+00 -9.187949e-02 3.169085e-01 -2.967882e-01 -1.325601e-01 -1.354759e-01 -9.178717e-01 1.178044e-01 -3.529041e-01 1.924888e-01 5.048670e-02 -3.728061e-01 4.735304e-02
<VARIANCE> 39
 8.261369e+01 3.245520e+01 4.225433e+01 2.406186e+01 4.417714e+01 4.619351e+01 3.628348e+01 3.868438e+01 5.120328e+01 3.178792e+01 1.680640e+01 2.517825e+01 1.830877e+01 7.824389e+00 5.784433e+00 6.497885e+00 1.699335e+00 2.166536e+00 1.613290e+00 3.267699e+00 2.900751e+00 2.216622e+00 3.274407e+00 2.465691e+00 2.139968e+00 6.301237e-01 7.149749e-01 3.865920e-01 2.578000e-01 3.050544e-01 2.689684e-01 2.237488e-01 6.402586e-01 8.075493e-01 4.813695e-01 4.800744e-01 3.247075e-01 3.419863e-01 1.692940e-01
<GCONST> 1.178740e+02
<MIXTURE> 2 3.993952e-01
<MEAN> 39
 -2.567677e+01 -1.951344e+00 1.670917e+00 1.502701e+00 -1.030257e+01 -1.190390e+01 2.761047e+00 -5.345548e+00 -1.653333e+00 -2.672092e+00 -2.816145e-01 -4.062218e+00 6.353089e+01 3.343273e+00 -4.616818e-01 2.072655e+00 -1.012958e+00 -2.205150e+00 -1.094191e+00 -1.380408e+00 -3.647078e-01 -8.984360e-01 6.715696e-02 3.140398e-01 -1.156014e+00 1.359989e+00 1.185714e+00 3.083639e-01 3.139366e-01 -8.129919e-01 -4.986094e-01 -3.100294e-01 -9.530423e-01 1.788324e-01 -2.701263e-01 -1.714677e-01 -1.011503e-01 -1.515256e-01 6.256117e-01
<VARIANCE> 39
 2.885148e+01 2.234877e+01 8.007848e+01 4.937999e+01 4.539190e+01 6.704234e+01 8.137544e+01 4.008612e+01 4.405663e+01 3.513539e+01 4.525156e+01 3.759696e+01 1.875629e+01 1.140127e+01 3.750740e+00 4.356346e+00 2.963049e+00 2.023237e+00 3.047162e+00 5.575513e+00 4.796037e+00 3.683614e+00 2.104115e+00 2.644222e+00 2.136250e+00 1.323223e+00 2.677285e-01 5.700596e-01 5.764641e-01 3.265424e-01 6.215447e-01 9.124917e-01 1.095851e+00 1.010948e+00 8.599311e-01 5.550883e-01 1.156276e+00 5.955900e-01 4.631653e-01
<GCONST> 1.298360e+02
<STATE> 3
<NUMMIXES> 2
<MIXTURE> 1 5.508594e-01
<MEAN> 39
 -1.336311e+01 3.324773e+00 2.001605e+00 -2.488308e+00 -1.523030e+01 -1.936020e+01 -4.205789e+00 -2.338715e+00 2.764730e-01 -4.458492e+00 -2.630450e+00 -6.566519e+00 6.755046e+01 2.609793e+00 -3.081459e-01 1.552977e-01 -1.059791e+00 -1.072739e+00 -8.732267e-01 -1.928510e+00 9.332618e-01 -7.286853e-01 7.952739e-01 5.400764e-01 -9.385892e-01 1.498617e+00 -3.205005e-02 -6.502867e-01 3.090967e-01 -4.357583e-01 4.197295e-01 3.635284e-01 -3.270620e-01 2.746715e-01 -2.899088e-01 1.437699e-01 4.183382e-02 2.112482e-01 1.806866e-01
<VARIANCE> 39
 4.143544e+01 5.572305e+01 6.110141e+01 4.401685e+01 6.194783e+01 6.251112e+01 5.139471e+01 3.835656e+01 3.430812e+01 2.911557e+01 2.729553e+01 2.920625e+01 4.146652e+01 1.985283e+01 4.668187e+00 3.336957e+00 3.176838e+00 2.068754e+00 1.791864e+00 4.324981e+00 4.225341e+00 3.013544e+00 3.442848e+00 3.160034e+00 2.101756e+00 6.456428e+00 1.212725e+00 1.782973e-01 2.537498e-01 1.882385e-01 4.002171e-01 4.775086e-01 4.604747e-01 4.057108e-01 3.339631e-01 2.576360e-01 3.518182e-01 2.971216e-01 4.294710e-01
<GCONST> 1.242214e+02
<MIXTURE> 2 4.491408e-01
<MEAN> 39
 -1.115009e+01 1.524070e+00 1.088598e+01 -3.982184e+00 -1.944297e+01 -1.698102e+01 -4.911548e+00 -9.495865e+00 -7.763499e+00 -5.412131e+00 -1.095740e-01 -6.526638e+00 6.995479e+01 5.329350e+00 -2.961323e-01 3.450370e+00 -3.304901e+00 -3.322355e+00 -2.459276e+00 -3.461843e+00 5.980291e-01 -1.766418e+00 -2.452492e-01 -9.968701e-01 -5.278676e-01 3.466251e+00 -9.133418e-01 -5.639714e-01 -3.969277e-01 -4.578569e-01 4.760601e-01 5.046391e-01 3.619571e-01 6.907005e-01 3.523457e-01 3.939213e-01 -1.352344e-01 1.674180e-01 8.942966e-02
<VARIANCE> 39
 4.481944e+01 2.530913e+01 9.343668e+01 3.251868e+01 4.179260e+01 7.199348e+01 5.499197e+01 8.178124e+01 3.043143e+01 1.815920e+01 5.056693e+01 3.687574e+01 2.545023e+01 1.844642e+00 3.222035e+00 1.933231e+00 2.791063e+00 2.199300e+00 6.686044e+00 7.542169e+00 5.600503e+00 5.947319e+00 4.451306e+00 1.279294e+01 5.394560e+00 1.872872e+00 6.245424e-01 2.589205e-01 3.871710e-01 3.466217e-01 4.016718e-01 7.283471e-01 7.158424e-01 7.918997e-01 7.882868e-01 3.655494e-01 5.728864e-01 2.982702e-01 2.784168e-01
<GCONST> 1.283534e+02
<STATE> 4
<NUMMIXES> 2
<MIXTURE> 1 6.078396e-01
<MEAN> 39
 -1.726435e+01 6.993980e+00 -2.956590e+00 -4.553280e+00 -1.678342e+01 -1.674549e+01 -3.003237e+00 -6.521788e+00 -3.352556e+00 -3.649405e+00 -2.513987e+00 -4.985943e+00 6.784639e+01 -3.381325e-01 5.805655e-02 -7.237159e-01 -6.953360e-02 3.924016e-01 3.819666e-01 -5.422969e-01 2.372838e-01 2.811773e-01 1.806438e-01 8.590697e-02 8.509111e-01 -7.411755e-01 1.343087e-01 -4.191535e-01 1.899734e-01 -1.005253e-02 3.729157e-01 3.893089e-01 1.266337e-01 1.580145e-01 3.204757e-01 -5.215037e-02 -3.810050e-02 1.602176e-02 -1.165175e-01
<VARIANCE> 39
 1.087647e+01 5.041443e+01 6.401716e+01 7.911580e+01 6.720221e+01 7.632999e+01 6.094504e+01 2.786502e+01 4.642830e+01 3.583392e+01 7.452158e+01 5.384111e+01 4.534259e+01 8.138832e-01 1.160517e+00 1.605387e+00 2.502670e+00 2.183310e+00 1.801497e+00 1.850517e+00 1.867385e+00 2.139108e+00 2.230341e+00 3.126919e+00 2.008952e+00 1.603000e+00 3.889066e-01 1.794877e-01 3.767770e-01 3.348145e-01 2.943132e-01 4.211165e-01 3.913118e-01 2.568292e-01 5.053279e-01 5.562502e-01 7.242109e-01 6.012839e-01 1.719046e-01
<GCONST> 1.168585e+02
<MIXTURE> 2 3.921604e-01
<MEAN> 39
 -3.071303e+00 -7.231088e+00 1.341463e+01 -8.310918e+00 -2.224121e+01 -2.126719e+01 -9.549103e+00 2.186985e+00 -4.417834e+00 -4.497563e+00 1.021356e+00 -8.813114e+00 7.526560e+01 2.268173e+00 -2.861253e+00 1.897841e+00 -3.049099e+00 -8.946233e-01 -9.120363e-02 -1.604582e+00 1.595582e+00 -9.536430e-01 8.368916e-01 1.425821e-01 -1.034413e+00 2.656098e+00 -1.700665e+00 -1.350094e-03 -6.787765e-01 3.455988e-01 8.813977e-01 7.279434e-01 9.860559e-01 -2.959083e-01 2.205973e-01 2.628834e-01 -2.228150e-01 3.479159e-01 -8.437225e-01
<VARIANCE> 39
 1.210916e+01 4.128347e+01 8.873379e+01 4.043027e+01 4.009150e+01 6.767261e+01 1.056928e+02 8.781355e+01 6.640131e+01 6.718100e+01 4.157585e+01 2.345252e+01 1.566719e+01 2.881554e+00 1.851295e+00 1.667696e+00 1.244036e+00 3.415697e+00 3.961248e+00 6.261203e+00 5.069860e+00 5.261118e+00 3.044899e+00 4.942464e+00 1.309015e+00 2.631358e+00 2.160983e-01 3.461309e-01 4.042241e-01 4.148663e-01 3.966435e-01 6.812032e-01 5.405089e-01 6.510985e-01 6.224895e-01 6.093622e-01 4.848080e-01 2.712978e-01 1.542282e-01
<GCONST> 1.236320e+02
<TRANSP> 5
 0.000000e+00 1.000000e+00 0.000000e+00 0.000000e+00 0.000000e+00
 0.000000e+00 6.982108e-01 3.017892e-01 0.000000e+00 0.000000e+00
 0.000000e+00 0.000000e+00 3.176253e-01 6.823748e-01 0.000000e+00
 0.000000e+00 0.000000e+00 0.000000e+00 4.664382e-01 5.335618e-01
 0.000000e+00 0.000000e+00 0.000000e+00 0.000000e+00 0.000000e+00
<ENDHMM>
~h "t"
<BEGINHMM>
<NUMSTATES> 5
<STATE> 2
<NUMMIXES> 2
<MIXTURE> 1 4.480404e-01
<MEAN> 39
 -6.003746e+00 -6.229688e+00 3.493441e+00 -6.571934e+00 -1.355012e+01 -2.237550e+01 -8.984734e+00 -1.298982e+00 1.231497e+00 -4.510985e+00 -2.791199e+00 -6.448640e+00 6.859753e+01 1.394971e+00 -1.395568e+00 1.371071e+00 7.200056e-02 -5.815905e-01 1.616887e-01 -1.477477e+00 1.016161e+00 -2.817014e-01 9.821575e-01 5.718784e-01 -8.935275e-01 2.163649e+00 6.392217e-01 -1.827753e-01 7.095004e-01 1.855730e-01 -6.088988e-01 9.355367e-02 -5.425385e-02 4.566508e-01 -8.579805e-01 3.991679e-01 4.138006e-01 -2.205842e-01 -1.554516e-01
<VARIANCE> 39
 2.224569e+01 2.337381e+01 3.926736e+01 3.684054e+01 3.361242e+01 8.986229e+01 1.141585e+02 5.624970e+01 9.855405e+01 3.350287e+01 1.490524e+01 4.438595e+01 3.268761e+01 4.441535e+00 3.011543e+00 5.648512e+00 3.357373e+00 3.256036e+00 6.300355e+00 3.643974e+00 5.003310e+00 5.264171e+00 2.471494e+00 1.832111e+00 2.998006e+00 2.935434e+00 7.085679e-01 3.625273e-01 1.362944e+00 3.685544e-01 3.742145e-01 2.097969e+00 1.277689e+00 1.520344e+00 1.154723e+00 5.412437e-01 7.569519e-01 3.220297e-01 5.600114e-01
<GCONST> 1.327916e+02
<MIXTURE> 2 5.519596e-01
<MEAN> 39
 -3.668571e+00 -4.044436e+00 7.085298e+00 -6.005109e+00 -1.748365e+01 -2.133588e+01 -6.299933e+00 -1.471637e-01 -6.626803e+00 -4.654427e+00 -4.878714e+00 -6.945088e+00 6.747986e+01 -7.000591e-01 -5.245216e-01 1.191672e-01 -4.441317e-01 3.788158e-01 2.867450e-01 -4.984724e-01 -7.793841e-01 5.183540e-01 -3.040614e-01 -4.918934e-02 3.791875e-01 7.755792e-01 -1.719597e-01 -6.784530e-01 -1.193258e-01 -5.725700e-01 -2.142771e-01 -1.979695e-02 3.643996e-01 9.938751e-02 6.193768e-01 1.545335e-01 -6.172573e-02 1.848932e-01 5.331184e-01
<VARIANCE> 39
 1.003104e+01 2.175456e+01 3.438837e+01 6.227062e+01 4.127786e+01 4.361329e+01 1.055155e+02 4.773703e+01 7.571582e+01 5.226519e+01 9.671957e+01 6.599880e+01 7.379073e+01 1.757221e+00 1.616515e+00 6.699595e+00 3.232150e+00 3.669575e+00 6.448048e+00 5.039477e+00 4.894502e+00 8.677067e+00 1.731145e+00 3.552519e+00 1.725979e+00 2.518048e+00 3.324294e-01 3.505281e-01 5.977988e-01 5.792292e-01 9.898241e-01 8.483499e-01 9.029770e-01 8.445154e-01 8.969783e-01 5.118333e-01 5.986226e-01 6.439469e-01 6.801211e-01
<GCONST> 1.322599e+02
<STATE> 3
<NUMMIXES> 2
<MIXTURE> 1 5.527712e-01
<MEAN> 39
 2.005998e-02 -1.182824e+01 1.053580e+01 -5.681338e+00 -1.843278e+01 -2.055990e+01 -1.950769e+01 6.132634e+00 -3.273955e-01 -5.795536e-01 1.352919e+00 -1.009216e+01 7.532788e+01 2.128141e+00 -2.542188e+00 2.422442e+00 -4.701537e-01 -1.562248e+00 7.489235e-02 -1.961061e+00 2.257795e+00 -1.508514e+00 1.869720e+00 1.363805e+00 -7.667604e-01 1.447924e+00 -3.885499e-01 1.568579e-01 -6.290394e-01 -6.614807e-02 3.443995e-01 2.252742e-01 7.715247e-01 -4.017144e-01 -1.159443e-01 -1.625473e-01 -2.394378e-01 4.248286e-01 -7.233045e-01
<VARIANCE> 39
 3.060215e+00 1.512065e+01 1.984640e+01 2.183623e+01 3.827225e+01 4.316205e+01 3.940392e+01 3.337167e+01 7.843791e+01 3.609181e+01 1.786263e+01 1.530493e+01 6.084340e+00 1.328001e+00 9.998639e-01 2.616726e+00 1.891743e+00 1.179294e+00 2.333375e+00 4.122886e+00 4.552498e+00 3.429750e+00 3.499057e+00 2.060963e+00 2.544564e+00 1.266662e+00 2.647818e-01 2.004174e-01 2.828280e-01 2.045735e-01 2.446762e-01 3.553206e-01 8.175806e-01 2.716468e-01 5.823523e-01 3.600480e-01 4.956160e-01 3.084671e-01 2.610512e-01
<GCONST> 1.072290e+02
<MIXTURE> 2 4.472287e-01
<MEAN> 39
 -3.149465e+00 -1.148217e+01 7.999560e+00 -8.912682e+00 -1.562874e+01 -2.419927e+01 -8.488685e+00 -4.305732e+00 -4.475664e+00 -3.755087e+00 -9.043714e+00 -3.745355e+00 7.556285e+01 6.667351e-01 -2.257605e+00 1.204687e+00 -9.435155e-01 -9.188421e-01 -5.556754e-02 6.585898e-01 1.967066e-03 8.446404e-03 6.732507e-01 -1.067008e+00 6.691200e-01 4.117528e-01 -1.393679e-01 -6.533910e-02 -7.514817e-01 -3.535132e-01 -1.521747e-01 3.944632e-01 6.376914e-01 5.031734e-01 4.654179e-01 8.325016e-02 -1.460140e-01 -2.427436e-01 -7.208443e-02
<VARIANCE> 39
 1.537715e+01 1.828457e+01 1.244013e+01 5.411562e+01 4.387413e+01 4.628120e+01 1.396516e+02 7.109354e+01 5.555806e+01 6.989270e+01 1.208731e+02 1.388808e+02 2.027237e+01 3.347596e-01 1.938169e+00 2.787435e+00 3.162956e+00 3.405280e+00 5.511252e+00 2.404954e+00 2.056792e+00 3.683342e+00 3.904234e+00 5.126093e-01 1.389165e+00 1.311409e+00 1.957119e-01 7.423403e-02 5.260431e-01 2.096187e-01 5.191789e-01 4.267596e-01 9.529713e-01 7.061027e-01 3.082406e-01 4.667706e-01 4.659378e-01 5.633727e-01 2.893675e-01
<GCONST> 1.176656e+02
<STATE> 4
<NUMMIXES> 2
<MIXTURE> 1 6.155034e-01
<MEAN> 39
 1.544211e+00 -1.584593e+01 1.207315e+01 -6.203630e+00 -1.760425e+01 -2.173056e+01 -1.801388e+01 5.379202e+00 -1.346601e+00 2.724602e+00 -7.975619e-01 -9.823736e+00 7.523163e+01 9.285043e-01 -1.590327e+00 5.112896e-01 -4.512298e-01 -7.881836e-01 6.623296e-01 8.894142e-01 1.675781e+00 -1.401012e+00 8.991989e-01 1.741918e-01 1.639312e-01 2.514481e-01 -3.705051e-01 6.988182e-01 -6.581035e-01 -1.743482e-01 4.175850e-01 3.635917e-01 6.510315e-01 4.103622e-02 3.005268e-01 -4.644229e-01 -2.410913e-01 4.408080e-02 -3.540426e-01
<VARIANCE> 39
 4.727600e+00 1.679188e+01 1.867994e+01 2.677572e+01 4.674451e+01 8.063493e+01 4.664254e+01 5.995035e+01 7.297113e+01 1.929317e+01 2.803083e+01 2.644113e+01 1.074715e+01 1.277233e+00 8.853161e-01 1.309722e+00 1.643585e+00 2.530616e+00 8.616825e-01 2.432969e+00 4.192769e+00 2.310253e+00 2.984661e+00 1.559050e+00 1.422269e+00 1.675566e+00 7.404576e-02 1.423835e-01 1.142835e-01 3.478578e-01 3.884447e-01 4.714721e-01 7.329117e-01 5.463260e-01 2.992328e-01 1.873776e-01 4.957049e-01 2.150478e-01 2.314730e-01
<GCONST> 1.049315e+02
<MIXTURE> 2 3.844966e-01
<MEAN> 39
 -3.776238e+00 -1.281676e+01 9.309651e+00 -1.528251e+01 -1.918888e+01 -2.321976e+01 -2.885802e+00 -1.371776e+00 -6.590831e+00 -2.685820e+00 -9.423668e+00 -1.707540e+00 7.756305e+01 2.810455e-01 -1.908136e+00 4.671446e-01 -2.054724e+00 -3.949744e-01 2.130494e-01 8.972605e-01 5.282971e-01 8.947932e-01 1.072988e+00 -1.439623e+00 -4.519447e-01 7.303176e-01 -2.893096e-01 5.043904e-01 -7.017910e-01 5.599689e-02 5.800127e-01 7.418581e-01 4.799513e-01 1.031746e-01 8.500557e-02 -1.662184e-01 1.368731e-01 -4.347382e-01 -3.672459e-01
<VARIANCE> 39
 1.468783e+01 2.937347e+01 1.995580e+01 2.946950e+01 4.348694e+01 5.127074e+01 1.254851e+02 9.958657e+01 4.743367e+01 6.906474e+01 1.295646e+02 1.439842e+02 1.771259e+01 5.817222e-01 1.196218e+00 2.663404e+00 1.215986e+00 3.873026e+00 2.075143e+00 6.447891e+00 3.979813e+00 2.744652e+00 1.411717e+00 1.391290e+00 7.933679e-01 2.735351e-01 9.048200e-02 1.579387e-01 2.121208e-01 5.559461e-02 5.133784e-01 4.950908e-01 5.145863e-01 4.218847e-01 3.645914e-01 2.098584e-01 2.716048e-01 7.519125e-01 8.214162e-02
<GCONST> 1.101213e+02
<TRANSP> 5
 0.000000e+00 1.000000e+00 0.000000e+00 0.000000e+00 0.000000e+00
 0.000000e+00 6.764783e-01 3.235218e-01 0.000000e+00 0.000000e+00
 0.000000e+00 0.000000e+00 3.122517e-01 6.877483e-01 0.000000e+00
 0.000000e+00 0.000000e+00 0.000000e+00 1.288883e-01 8.711117e-01
 0.000000e+00 0.000000e+00 0.000000e+00 0.000000e+00 0.000000e+00
<ENDHMM>
~h "u"
<BEGINHMM>
<NUMSTATES> 5
<STATE> 2
<NUMMIXES> 2
<MIXTURE> 1 5.806509e-01
<MEAN> 39
 9.709965e+00 -1.490042e+00 3.852319e+00 -1.818977e+01 -1.538613e+01 -8.633148e-01 -1.600765e+01 1.763536e+00 -8.255248e+00 -5.946158e+00 4.109771e+00 -8.292283e+00 6.841026e+01 -3.124090e-01 -1.805049e+00 -1.164301e-01 1.583678e+00 1.144361e+00 2.103424e-02 -1.057539e+00 -1.368186e+00 6.383236e-01 1.179530e-01 1.181307e+00 5.256326e-02 7.695190e-01 -7.632029e-02 -8.945499e-02 1.362552e-02 7.979560e-01 5.774475e-02 -4.925247e-01 1.750034e-01 -4.649455e-01 4.920663e-01 4.263429e-01 -4.025578e-01 -1.917398e-01 -7.132151e-02
<VARIANCE> 39
 7.341152e+00 8.561635e+01 2.630609e+01 4.360725e+01 5.077999e+01 3.055593e+01 1.067862e+02 5.539832e+01 3.070241e+01 7.443848e+01 5.006097e+01 2.139612e+01 1.418623e+01 1.374292e-01 1.194080e+00 8.538628e-01 4.453775e+00 1.948674e+00 3.079964e+00 2.771940e+00 5.576834e+00 2.586317e+00 3.823947e+00 3.996947e+00 1.815663e+00 8.837097e-01 2.285267e-02 1.676752e-01 1.843658e-01 2.882697e-01 3.286332e-01 5.047610e-01 3.811212e-01 4.409851e-01 4.166151e-01 4.313856e-01 1.110064e+00 3.420044e-01 6.286831e-02
<GCONST> 1.092391e+02
<MIXTURE> 2 4.193493e-01
<MEAN> 39
 1.881352e+00 -8.298427e+00 -4.106468e+00 -1.640822e+01 -9.163790e+00 -1.382716e+01 -8.107353e+00 -2.841041e+00 -8.658648e+00 -4.304872e+00 -1.004541e+01 -1.014336e+01 7.406612e+01 -3.338581e-01 -5.216867e-01 2.883929e-01 3.800638e-01 3.605496e-02 1.058625e+00 2.444600e-01 -3.739377e-01 -2.524469e-02 -9.841672e-01 1.618107e-01 -5.914069e-01 4.105100e-02 -4.338289e-02 1.691240e-02 1.480582e-02 3.239065e-02 -1.501541e-01 2.691845e-01 -8.172345e-02 -4.610755e-02 2.759221e-01 2.837089e-02 -7.451411e-03 1.055938e-01 -9.436885e-02
<VARIANCE> 39
 1.697673e+01 2.618244e+01 1.717409e+01 2.991911e+01 5.006461e+01 1.540019e+01 2.737280e+01 2.149601e+01 7.399194e+01 9.213335e+01 1.394703e+02 8.601842e+01 2.874281e+01 6.238812e-01 1.274457e+00 1.756649e+00 1.735121e+00 2.012440e+00 3.341916e+00 3.787783e+00 2.245297e+00 6.925207e+00 3.567569e+00 2.435778e+00 3.421395e+00 2.601019e+00 4.308864e-02 2.248259e-01 2.811554e-01 4.008801e-01 6.351246e-01 1.448538e-01 6.420162e-01 3.726158e-01 7.093156e-01 8.487689e-01 5.858444e-01 5.768131e-01 5.950123e-02
<GCONST> 1.147838e+02
<STATE> 3
<NUMMIXES> 2
<MIXTURE> 1 6.027775e-01
<MEAN> 39
 7.632143e+00 -1.314210e+01 4.055637e+00 -7.548633e+00 -7.656499e+00 -4.891293e+00 -1.965665e+01 -5.545009e+00 -1.074656e+00 2.559427e+00 4.161271e+00 -1.193360e+01 7.298624e+01 -5.723932e-01 -9.655256e-01 7.701795e-01 2.673784e+00 5.665453e-01 -1.688366e+00 4.075507e-02 -5.852052e-01 2.198922e+00 7.996960e-01 -2.886824e+00 -1.213210e+00 2.540202e-01 2.552655e-03 3.794170e-01 4.110487e-01 -3.464935e-01 -6.057538e-01 -1.524615e-01 5.582657e-01 8.331412e-01 -4.136313e-01 -6.374242e-01 -5.304236e-01 2.994708e-01 -2.365286e-01
<VARIANCE> 39
 6.385821e+00 2.914222e+01 1.551073e+01 9.506935e+01 3.979848e+01 2.032525e+01 9.068536e+01 1.275355e+02 2.910954e+01 2.877175e+01 4.363271e+01 2.667131e+01 9.676072e+00 1.890090e-01 7.268022e-01 9.437372e-01 3.838617e+00 1.777829e+00 1.675701e+00 1.680747e+00 5.176621e+00 2.755877e+00 2.468890e+00 1.454318e+00 6.171503e-01 2.932375e-01 4.211784e-02 2.108860e-01 1.153900e-01 7.131104e-01 1.701220e-01 4.226844e-01 2.117710e-01 6.321275e-01 5.191000e-01 2.046230e-01 7.730792e-01 2.406629e-01 4.633666e-02
<GCONST> 1.005900e+02
<MIXTURE> 2 3.972226e-01
<MEAN> 39
 6.672575e-01 -1.183324e+01 -1.912871e+00 -1.146369e+01 -6.024702e+00 -9.046232e+00 -1.157252e+01 -6.549464e+00 -2.927513e+00 -4.209660e+00 -1.040646e+01 -1.042678e+01 7.443886e+01 1.668057e-01 -2.881299e-01 9.058874e-01 1.464594e+00 -1.245399e-01 8.377777e-01 2.572855e-01 -3.808048e-02 -4.345315e-01 -1.912382e+00 -1.220364e+00 1.128489e+00 -1.246260e+00 -6.122994e-02 9.596699e-02 -1.295335e-01 -3.111639e-01 -3.616996e-01 -3.135163e-01 4.332114e-01 5.139467e-01 -2.692926e-01 -7.420994e-02 8.550769e-04 1.782358e-01 7.348720e-02
<VARIANCE> 39
 1.058605e+01 1.132261e+01 1.958016e+01 2.222300e+01 3.426323e+01 3.931499e+01 8.504387e+01 4.643233e+01 2.335373e+01 9.888794e+01 7.759612e+01 9.391236e+01 4.185250e+01 3.393701e-01 1.996536e+00 1.633134e+00 1.687708e+00 2.567842e+00 2.987867e+00 5.195839e+00 2.989643e+00 6.852323e+00 4.175926e+00 1.633204e+00 3.731061e+00 1.887877e+00 8.910400e-02 1.682728e-01 3.084459e-01 4.863450e-01 3.116461e-01 5.551454e-01 4.959372e-01 3.143578e-01 1.724862e+00 8.314893e-01 5.563444e-01 4.537184e-01 2.083051e-01
<GCONST> 1.173058e+02
<STATE> 4
<NUMMIXES> 2
<MIXTURE> 1 4.401573e-01
<MEAN> 39
 6.621916e+00 -1.206232e+01 9.160955e+00 -3.635489e+00 -9.678376e+00 -7.934814e+00 -1.938475e+01 -3.555880e+00 2.354572e+00 -1.467319e+00 -4.266575e+00 -1.216969e+01 7.162882e+01 -3.358532e-01 -3.664625e-01 1.657928e+00 3.575109e-01 -1.383566e+00 -1.191008e+00 1.157561e+00 1.740865e+00 -3.343255e-01 -5.639093e-01 -1.696888e+00 4.843304e-01 -8.589572e-02 7.155313e-02 -7.440016e-02 -5.354632e-02 -5.686342e-01 -2.152792e-01 1.989359e-01 -4.865094e-02 3.725255e-01 -4.084710e-01 7.443398e-02 6.575096e-01 4.739265e-01 7.700010e-02
<VARIANCE> 39
 3.883265e+00 4.406796e+01 2.018530e+01 1.012990e+02 3.415952e+01 2.865969e+01 9.999788e+01 1.599655e+02 2.090686e+01 4.509168e+01 2.511583e+01 3.615661e+01 1.568742e+01 3.209113e-01 1.160033e+00 5.189185e-01 6.492110e-01 7.267660e-01 1.440168e+00 1.559226e+00 6.621504e-01 1.745054e+00 7.754976e-01 1.983755e+00 1.084430e+00 3.345253e-01 3.539680e-02 1.666837e-01 1.082902e-01 4.570542e-01 2.484372e-01 4.291087e-01 3.318325e-01 3.507458e-01 9.421903e-01 2.474272e-01 4.473440e-01 1.891181e-01 5.249829e-02
<GCONST> 9.599613e+01
<MIXTURE> 2 5.598425e-01
<MEAN> 39
 1.126646e-01 -1.268032e+01 -4.201274e+00 -9.282299e+00 -6.746503e+00 -1.389187e+01 -2.013260e-01 -1.540692e+00 -2.300410e+00 -1.315672e+01 -1.273876e+01 -8.340466e+00 7.469788e+01 1.267254e-02 4.194166e-01 9.608997e-02 7.828210e-03 -7.298068e-01 6.112658e-01 7.931243e-01 -4.494437e-03 -6.300657e-01 1.131608e-01 2.267468e-01 3.888440e-01 -5.169295e-01 -9.207364e-02 -1.037546e-02 -4.292898e-02 -4.044993e-01 2.304066e-02 -1.664787e-01 -4.242471e-01 7.102225e-04 2.308556e-02 5.325905e-01 4.259586e-01 -2.333871e-01 1.528208e-01
<VARIANCE> 39
 2.943223e+01 2.596326e+01 2.654644e+01 2.893408e+01 2.717555e+01 5.866457e+01 1.402364e+02 7.043251e+01 1.393619e+01 9.174786e+01 1.090878e+02 7.539987e+01 5.619030e+01 3.307002e-01 1.568636e+00 1.014064e+00 1.822494e+00 3.019360e+00 2.118602e+00 4.757148e+00 2.875734e+00 2.856342e+00 2.809752e+00 2.379874e+00 2.542486e+00 1.206277e+00 1.484810e-01 5.062054e-01 2.522884e-01 2.555802e-01 5.930606e-01 6.580383e-01 5.694796e-01 8.973849e-01 6.744605e-01 5.214184e-01 5.085768e-01 3.595842e-01 2.226627e-01
<GCONST> 1.190414e+02
<TRANSP> 5
 0.000000e+00 1.000000e+00 0.000000e+00 0.000000e+00 0.000000e+00
 0.000000e+00 6.835418e-01 3.164583e-01 0.000000e+00 0.000000e+00
 0.000000e+00 0.000000e+00 5.232137e-01 4.767863e-01 0.000000e+00
 0.000000e+00 0.000000e+00 0.000000e+00 5.424502e-01 4.575498e-01
 0.000000e+00 0.000000e+00 0.000000e+00 0.000000e+00 0.000000e+00
<ENDHMM>
~h "ch"
<BEGINHMM>
<NUMSTATES> 5
<STATE> 2
<NUMMIXES> 2
<MIXTURE> 1 5.108757e-01
<MEAN> 39
 -1.110498e+01 -1.653217e+00 -9.833708e-01 -1.661611e+01 -9.772110e+00 -1.219421e+01 -6.452696e+00 2.754636e-01 5.890652e+00 -1.669016e+00 4.664828e-01 -9.368999e+00 7.043610e+01 -3.236010e+00 5.031643e-02 1.462221e+00 -5.448098e-01 -1.313186e+00 -1.243778e-01 1.057647e+00 2.689152e-01 3.096072e-01 -6.980173e-02 1.538226e+00 4.791458e-01 9.700570e-01 3.687237e-01 -1.196530e-01 2.509702e-01 5.160301e-01 -3.895201e-02 -2.820367e-01 -1.578740e-01 2.373137e-01 -5.541022e-01 -2.139942e-01 -1.284475e-01 1.253068e-01 -7.156050e-02
<VARIANCE> 39
 1.186744e+02 3.766892e+01 6.370650e+01 5.628745e+01 4.585533e+01 6.313957e+01 4.404252e+01 1.305787e+02 3.701881e+01 3.080307e+01 7.009045e+01 4.248417e+01 3.184498e+01 1.151632e+01 2.089187e+00 4.394414e+00 4.964930e+00 2.361682e+00 2.688871e+00 5.213865e+00 6.680293e+00 8.419111e+00 5.324846e+00 2.779534e+00 1.704123e+00 5.432831e+00 2.147750e+00 9.274967e-01 5.589447e-01 1.077534e+00 5.196081e-01 1.115824e+00 1.243552e+00 1.518549e+00 6.533685e-01 1.302329e+00 9.810972e-01 5.793222e-01 4.887490e-01
<GCONST> 1.409373e+02
<MIXTURE> 2 4.891241e-01
<MEAN> 39
 -1.218193e+00 -2.591178e+00 -2.055965e+00 -8.225019e+00 -3.312669e+00 -1.401090e+01 -1.488686e+01 -2.555027e+00 -2.185289e+00 -1.478682e+00 -8.003243e-01 -6.855101e+00 6.272219e+01 -2.131999e+00 1.294879e-01 2.842893e-01 6.537768e-01 -1.645230e+00 9.464756e-01 5.794296e-01 -1.669133e+00 1.549047e+00 -1.379847e+00 1.180603e-01 -6.024035e-01 7.223890e-02 -1.146992e+00 -2.285379e-01 7.125981e-01 -2.974772e-01 -4.605050e-01 1.335646e-01 5.205653e-01 -2.233673e-01 9.442076e-01 -2.488509e-01 1.389465e-01 -4.398888e-02 9.905701e-01
<VARIANCE> 39
 4.202719e+01 1.171429e+01 2.727810e+01 4.866166e+01 2.399899e+01 2.139192e+01 6.495229e+01 2.090435e+01 3.937018e+01 1.739695e+01 1.416757e+01 1.332949e+01 4.357418e+01 7.594000e+00 2.888281e+00 5.496295e+00 3.944304e+00 1.871586e+00 3.701131e+00 3.270010e+00 3.973845e+00 7.322326e+00 2.603701e+00 3.377326e+00 1.964909e+00 4.515533e+00 1.162538e+00 1.451077e-01 7.775948e-01 7.706040e-01 3.961236e-01 5.025346e-01 5.702856e-01 8.862754e-01 9.117863e-01 5.866479e-01 5.020603e-01 3.513614e-01 4.934262e-01
<GCONST> 1.234236e+02
<STATE> 3
<NUMMIXES> 2
<MIXTURE> 1 4.168310e-01
<MEAN> 39
 -2.723620e+01 -4.873263e+00 1.209906e+01 -7.353797e+00 -1.338671e+01 -1.374439e+01 -6.823087e+00 -9.672908e+00 1.003098e+01 -9.557876e+00 2.722815e+00 -5.561525e+00 7.304272e+01 -3.365171e+00 -1.930410e-01 2.083677e+00 1.329784e+00 -7.057102e-01 -2.142653e+00 2.658103e+00 1.290674e+00 7.740396e-01 -8.850774e-01 5.373925e-02 8.555877e-01 9.222612e-01 2.918930e+00 -7.890255e-02 -1.037452e+00 4.939519e-01 7.803283e-01 -4.948534e-01 -9.158965e-01 8.639262e-01 -9.574974e-01 7.568754e-01 -4.513399e-01 -3.095758e-01 -1.267607e+00
<VARIANCE> 39
 1.062577e+01 1.225417e+01 1.515736e+01 1.173473e+01 3.017097e+01 2.737464e+01 2.837852e+01 6.976858e+01 3.857333e+01 1.893611e+01 2.020463e+01 1.564556e+01 3.953729e+00 8.921570e+00 7.622067e-01 2.124536e+00 2.033681e+00 9.004392e-01 5.658461e-01 1.072053e+00 4.774560e+00 1.913409e+00 4.410899e+00 1.011333e+00 1.941973e+00 4.272241e+00 6.867780e-01 1.731418e-01 1.359441e-01 2.167203e-01 1.715130e-01 4.188823e-01 1.037825e+00 1.011492e+00 5.454352e-01 2.545477e-01 3.564245e-01 2.709061e-01 1.566972e-01
<GCONST> 1.039538e+02
<MIXTURE> 2 5.831690e-01
<MEAN> 39
 -2.157096e+01 -5.314160e+00 1.118876e+01 -4.733218e+00 -1.405800e+01 -1.853070e+01 -3.034470e+00 -9.247525e-01 5.419077e+00 -9.615450e+00 1.292464e+00 -6.754659e+00 7.074272e+01 5.434972e+00 -9.042467e-01 -3.948468e-01 6.735690e-01 1.288946e-01 -2.262913e+00 -1.758814e+00 7.239674e-01 -1.633183e-01 -7.254393e-01 -1.375875e+00 -9.841385e-01 3.324147e-01 1.332338e+00 -2.406323e-01 -8.569950e-01 -1.096930e+00 4.549961e-01 4.305060e-01 -1.215753e+00 4.999767e-02 3.406427e-01 5.497147e-01 1.012937e-01 -5.109579e-01 6.917335e-01
<VARIANCE> 39
 4.245729e+01 1.427477e+01 2.924316e+01 3.323750e+01 3.634398e+01 2.472373e+01 1.209970e+01 7.171686e+01 7.130073e+01 4.259686e+01 2.425438e+01 3.604601e+01 1.236948e+01 3.303300e+00 7.422875e-01 2.078503e+00 2.831756e+00 2.265357e+00 1.991807e+00 5.367862e+00 2.574219e+00 1.337565e+00 6.956145e+00 2.869813e+00 1.763374e+00 1.553163e+00 2.005185e+00 7.597234e-02 1.870161e-01 2.867354e-01 3.551023e-01 4.206358e-01 1.165498e+00 4.017960e-01 4.885891e-01 1.035291e+00 4.924039e-01 4.801193e-01 2.510194e-01
<GCONST> 1.159586e+02
<STATE> 4
<NUMMIXES> 2
<MIXTURE> 1 7.056166e-01
<MEAN> 39
 -1.703689e-01 -1.207305e+01 7.276927e+00 -1.004389e+01 -7.549292e+00 -2.142461e+01 -1.863994e+01 -8.195755e-01 9.104850e+00 -3.773382e+00 2.952923e+00 -1.286265e+01 7.717782e+01 2.725646e+00 -1.286111e+00 -1.474900e+00 -2.576680e+00 1.720672e+00 1.461593e+00 -1.715120e+00 3.992721e-01 -7.339390e-01 2.105340e+00 8.044289e-01 -1.427855e+00 8.885298e-01 -1.244284e+00 2.273810e-01 1.303089e-02 1.069215e-02 -9.517366e-02 7.632092e-01 1.046995e+00 -1.395583e-01 -3.810047e-01 2.058991e-01 -5.950165e-02 2.446354e-01 -5.746373e-01
<VARIANCE> 39
 5.979842e+00 1.177413e+01 1.572995e+01 2.071185e+01 2.584921e+01 2.098342e+01 2.313287e+01 2.179935e+01 2.066262e+01 1.208911e+01 7.767099e+00 1.267042e+01 4.407439e+00 5.482389e+00 6.228057e-01 5.035353e-01 9.552193e-01 1.573547e+00 1.815380e+00 5.391511e+00 5.973630e-01 1.441772e+00 1.186461e+00 6.269242e-01 1.374121e+00 2.016638e+00 3.901131e-01 1.326878e-01 1.247012e-01 3.409280e-01 3.136086e-01 3.322708e-01 6.324075e-01 9.578431e-02 1.500129e-01 2.264551e-01 1.531526e-01 1.475239e-01 1.339871e-01
<GCONST> 8.926789e+01
<MIXTURE> 2 2.943834e-01
<MEAN> 39
 -6.187631e+00 -7.445116e+00 3.048425e+00 -1.222186e+01 -1.285290e+01 -1.973210e+01 -6.693392e+00 2.379878e+00 3.803057e+00 -1.123888e+01 -5.475867e+00 -1.060234e+01 7.724039e+01 3.145232e+00 -1.550046e+00 -1.677750e+00 -2.006032e+00 2.692812e+00 5.744478e-01 -2.210719e+00 8.273432e-01 1.246361e+00 1.865646e+00 -1.893870e+00 -1.548543e+00 1.080427e+00 -7.495234e-01 1.695871e-01 -2.183252e-01 -3.629223e-01 8.159996e-01 7.911748e-01 -7.806022e-02 -7.324701e-01 -5.071793e-02 5.568523e-01 4.859423e-01 -3.572036e-01 -1.296696e-01
<VARIANCE> 39
 4.951689e+00 1.417299e+01 2.859488e+01 2.775175e+01 1.930818e+01 9.002170e+00 2.590427e+01 9.485448e+01 2.796448e+01 2.192684e+01 4.001941e+01 2.723940e+01 2.228389e+01 6.386933e+00 2.868082e-01 1.107308e+00 4.648429e-01 1.898197e+00 1.846846e+00 8.202857e+00 2.930361e+00 2.678686e+00 1.703901e+00 3.313123e+00 7.041582e-01 1.192581e+00 7.321937e-02 1.903540e-01 1.571511e-01 2.830373e-01 4.017000e-01 2.925908e-01 2.330117e-01 3.394895e-01 2.917663e-01 9.348447e-01 2.151820e-01 6.918447e-02 2.146796e-01
<GCONST> 9.989384e+01
<TRANSP> 5
 0.000000e+00 1.000000e+00 0.000000e+00 0.000000e+00 0.000000e+00
 0.000000e+00 8.671376e-01 1.328625e-01 0.000000e+00 0.000000e+00
 0.000000e+00 0.000000e+00 7.762405e-01 2.237595e-01 0.000000e+00
 0.000000e+00 0.000000e+00 0.000000e+00 7.616659e-01 2.383340e-01
 0.000000e+00 0.000000e+00 0.000000e+00 0.000000e+00 0.000000e+00
<ENDHMM>
~h "sil"
<BEGINHMM>
<NUMSTATES> 5
<STATE> 2
<NUMMIXES> 2
<MIXTURE> 1 4.046934e-01
<MEAN> 39
 -1.528200e+01 3.674063e+00 -3.527208e+00 -3.067363e+00 -8.808790e+00 -1.245795e+01 -3.275971e+00 -3.263506e+00 -6.791378e-01 -3.998932e+00 -2.741252e+00 -4.419133e+00 5.837809e+01 -3.974943e-01 -2.705027e-01 5.789975e-02 1.902158e-02 2.777878e-01 3.407795e-01 -1.832605e-01 2.251681e-02 1.027408e-01 9.479128e-02 9.325346e-02 8.260974e-02 -1.774469e-01 6.150336e-02 -7.463349e-02 1.014420e-01 2.779876e-02 -7.614430e-03 2.823235e-02 5.502517e-02 -2.363389e-02 -7.273884e-02 -2.834690e-03 2.774478e-02 -2.367807e-02 9.595922e-02
<VARIANCE> 39
 1.173350e+02 5.373672e+01 4.767503e+01 7.110267e+01 5.406945e+01 8.495175e+01 4.928239e+01 3.565980e+01 3.711992e+01 3.573652e+01 2.947641e+01 2.644258e+01 2.968741e+01 1.209615e+00 1.272442e+00 1.334118e+00 1.811140e+00 2.023919e+00 1.983992e+00 2.023661e+00 2.252803e+00 2.242441e+00 1.669028e+00 1.986624e+00 2.152223e+00 9.680458e-01 7.550897e-02 1.137929e-01 1.466848e-01 2.696945e-01 2.418856e-01 3.317949e-01 2.981422e-01 3.432196e-01 3.116372e-01 2.531096e-01 2.911487e-01 3.330412e-01 5.201214e-02
<GCONST> 1.080409e+02
<MIXTURE> 2 5.953071e-01
<MEAN> 39
 -1.677549e+01 -5.612095e+00 -3.089059e+00 -2.862231e+00 -2.883618e+00 -3.442205e+00 -1.883817e+00 -4.251501e+00 -3.169885e+00 -2.973777e+00 -1.386972e+00 -4.363784e+00 4.736733e+01 -1.929316e-02 -9.358143e-03 -1.699122e-02 4.030065e-02 3.770144e-02 8.128650e-02 1.115353e-02 -2.256435e-02 -2.967808e-02 3.224061e-03 -6.829318e-03 -1.274726e-02 -5.067653e-02 8.054802e-03 2.735391e-02 3.085832e-03 -1.110700e-02 -7.868205e-03 -1.254604e-02 2.635647e-03 3.200975e-02 8.074651e-03 6.337851e-03 -6.953417e-03 2.806226e-03 2.143181e-02
<VARIANCE> 39
 1.943461e+00 2.523261e+00 3.816110e+00 6.196562e+00 7.222116e+00 8.630423e+00 1.021683e+01 1.107326e+01 9.700851e+00 1.061995e+01 1.185220e+01 9.545062e+00 2.568816e+00 1.254810e-01 2.831279e-01 4.363939e-01 6.949061e-01 8.480793e-01 9.565567e-01 1.137388e+00 1.461190e+00 1.207008e+00 1.214454e+00 1.433269e+00 1.064720e+00 4.357563e-02 3.200399e-02 5.972756e-02 9.373053e-02 1.573736e-01 1.793210e-01 2.069334e-01 2.376074e-01 3.065540e-01 2.644113e-01 2.541625e-01 3.032910e-01 2.145107e-01 1.119442e-02
<GCONST> 6.272384e+01
<STATE> 3
<NUMMIXES> 2
<MIXTURE> 1 3.852816e-01
<MEAN> 39
 -1.146378e+01 3.091907e+00 -3.339399e+00 -6.780923e+00 -9.081588e+00 -8.122578e+00 -3.797967e+00 -3.400849e+00 -2.948595e+00 -3.052539e+00 -2.287579e+00 -5.900437e+00 5.857418e+01 -2.332996e-01 -6.706589e-01 6.578212e-01 2.122778e-01 5.445915e-02 2.143008e-01 -2.767439e-01 1.671864e-01 -8.674921e-05 5.835361e-01 2.175843e-01 1.346621e-01 8.634400e-01 -3.026515e-03 -3.004040e-01 1.139497e-01 -6.745359e-02 -3.052419e-02 -1.044931e-01 -1.855502e-02 1.721293e-01 1.287861e-01 1.517281e-01 2.992915e-02 6.521807e-02 1.520968e-01
<VARIANCE> 39
 1.936477e+02 6.592902e+01 6.482376e+01 9.122304e+01 7.252184e+01 7.416864e+01 6.115875e+01 4.773761e+01 4.425324e+01 5.147985e+01 3.528029e+01 2.990520e+01 4.683342e+01 2.565939e+00 3.578451e+00 2.816402e+00 2.963733e+00 3.108867e+00 3.353045e+00 2.872483e+00 2.907399e+00 3.648612e+00 3.423703e+00 2.974154e+00 3.123474e+00 2.180088e+00 2.240149e-01 3.695980e-01 2.481308e-01 3.507865e-01 4.392872e-01 4.570449e-01 5.310834e-01 4.276724e-01 5.049213e-01 5.599946e-01 3.138858e-01 3.126079e-01 1.965720e-01
<GCONST> 1.260324e+02
<MIXTURE> 2 6.147183e-01
<MEAN> 39
 -1.962206e+01 4.334814e+00 -4.409567e-01 -4.202981e+00 -3.641405e+00 -1.425672e+01 -7.464873e+00 -2.316849e+00 1.775508e+00 -6.027850e+00 -2.414992e+00 -6.565082e+00 6.053639e+01 -1.961326e-01 -3.455923e-01 3.665480e-01 -2.056996e-02 -1.218243e-01 1.698893e-03 2.048331e-01 -4.159884e-02 -1.507459e-01 -1.726129e-01 -6.150363e-02 -7.034315e-02 -2.826179e-01 9.977719e-02 -1.056264e-01 -1.705793e-02 -1.100907e-01 -8.678900e-02 -9.224425e-02 6.726138e-02 -2.492192e-02 -1.073584e-01 8.300966e-03 -8.214087e-03 -1.245029e-02 5.719355e-02
<VARIANCE> 39
 9.647336e+01 2.945960e+01 5.254158e+01 7.277047e+01 6.523721e+01 5.860619e+01 3.953671e+01 4.705143e+01 2.537551e+01 3.815442e+01 2.231439e+01 2.969103e+01 2.253139e+01 7.283179e-01 1.250795e+00 1.009822e+00 1.289646e+00 1.913332e+00 1.864050e+00 1.816600e+00 2.148159e+00 2.056542e+00 1.716008e+00 1.778926e+00 1.403165e+00 5.853621e-01 7.147048e-02 1.431492e-01 1.782035e-01 2.211273e-01 2.570022e-01 3.602987e-01 3.291541e-01 3.888025e-01 3.218918e-01 3.861900e-01 3.466579e-01 2.721936e-01 4.062845e-02
<GCONST> 1.046860e+02
<STATE> 4
<NUMMIXES> 2
<MIXTURE> 1 6.290779e-01
<MEAN> 39
 -1.461479e+01 1.005613e+00 -2.041140e+00 -3.888422e+00 -7.245999e+00 -9.056726e+00 -4.865939e+00 -2.846101e+00 6.750128e-02 -2.849542e+00 -1.846246e+00 -5.126751e+00 5.547522e+01 -2.440840e-01 -1.539259e-01 2.592062e-01 -1.160895e-01 -4.984043e-01 -5.545886e-02 4.127231e-01 1.798336e-01 -1.027116e-02 9.299348e-02 3.110312e-01 2.621954e-01 -6.569185e-02 1.857813e-01 -4.195853e-02 7.425825e-02 -2.632245e-02 -1.330915e-01 -4.428493e-02 6.392244e-02 5.187750e-02 -2.249410e-02 1.159272e-02 3.979968e-02 -8.657899e-02 2.491253e-02
<VARIANCE> 39
 1.199682e+02 2.277884e+01 3.203911e+01 5.457184e+01 4.469189e+01 6.493574e+01 3.821809e+01 2.746974e+01 2.771576e+01 2.729812e+01 2.417988e+01 2.494729e+01 4.487783e+01 9.556396e-01 2.124173e+00 1.344893e+00 1.647418e+00 1.981231e+00 1.742369e+00 1.959484e+00 2.092531e+00 2.067703e+00 2.214465e+00 1.687966e+00 1.283029e+00 1.725718e+00 1.545817e-01 1.468138e-01 1.222918e-01 1.185892e-01 2.227982e-01 1.625624e-01 2.049586e-01 1.779892e-01 1.383810e-01 2.025840e-01 1.646194e-01 1.552624e-01 7.441548e-02
<GCONST> 1.013273e+02
<MIXTURE> 2 3.709222e-01
<MEAN> 39
 5.572165e-01 -6.250735e-02 6.923283e-01 -1.237198e+01 -1.098064e+01 -8.886453e+00 -6.087124e+00 -1.085951e+00 -5.448016e+00 -6.578743e-01 -2.711373e+00 -7.275767e+00 6.329169e+01 9.271690e-01 -1.256700e+00 4.054598e-01 -1.134082e+00 1.051239e-01 9.713308e-02 -9.971341e-01 -3.380735e-02 -1.429842e+00 6.946232e-01 1.583054e-01 -5.168716e-01 2.132186e+00 -2.419783e-01 -2.044556e-01 -1.735437e-01 -1.382517e-01 1.427749e-01 1.013186e-02 -1.458400e-01 2.442486e-02 1.251219e-01 9.531878e-02 1.455175e-03 7.482159e-02 9.814782e-02
<VARIANCE> 39
 1.159229e+02 8.415211e+01 6.093008e+01 1.482484e+02 7.485892e+01 1.029659e+02 6.432564e+01 5.415481e+01 6.356796e+01 6.028468e+01 5.776110e+01 4.207904e+01 7.011486e+01 4.301826e+00 6.100637e+00 3.845109e+00 7.162075e+00 3.519944e+00 5.690454e+00 4.556467e+00 3.949502e+00 3.651938e+00 5.343390e+00 4.351880e+00 3.233351e+00 3.714437e+00 5.788437e-01 8.178937e-01 4.908006e-01 1.048217e+00 6.054014e-01 6.520045e-01 5.766138e-01 5.673746e-01 6.363053e-01 9.308805e-01 5.449390e-01 6.714880e-01 7.137542e-01
<GCONST> 1.414467e+02
<TRANSP> 5
 0.000000e+00 1.000000e+00 0.000000e+00 0.000000e+00 0.000000e+00
 0.000000e+00 8.526394e-01 1.473606e-01 0.000000e+00 0.000000e+00
 0.000000e+00 0.000000e+00 5.910769e-01 4.089231e-01 0.000000e+00
 0.000000e+00 0.000000e+00 0.000000e+00 1.687268e-01 8.312732e-01
 0.000000e+00 0.000000e+00 0.000000e+00 0.000000e+00 0.000000e+00
<ENDHMM>
